<pad>	0
<unk>	0
<s>	0
</s>	0
,	-3.26349
.	-3.31626
▁w	-3.77495
▁	-4.27295
a	-4.33572
▁i	-4.39196
▁z	-4.39779
▁na	-4.52208
y	-4.70136
▁do	-4.72034
u	-4.84739
m	-4.96854
▁się	-4.985
▁o	-5.06025
▁nie	-5.10868
e	-5.12491
ch	-5.1642
▁W	-5.20829
i	-5.36617
j	-5.41789
▁jest	-5.45278
▁po	-5.45626
▁za	-5.46777
ów	-5.51502
▁to	-5.51923
em	-5.55896
o	-5.56333
▁że	-5.57325
▁od	-5.70605
▁a	-5.73772
s	-5.76842
ą	-5.78406
ę	-5.83727
ć	-5.8474
nie	-5.89339
ł	-5.9195
li	-5.9328
▁(	-5.93808
na	-5.95978
go	-5.96758
z	-5.97558
t	-6.02021
▁r	-6.03673
▁przez	-6.0381
ie	-6.06027
w	-6.09784
▁u	-6.12773
ne	-6.12902
k	-6.13989
mi	-6.14818
▁wy	-6.15056
ach	-6.15363
-	-6.16267
▁-	-6.20699
▁oraz	-6.20847
▁roku	-6.22007
:	-6.24944
nia	-6.29639
▁tym	-6.30165
ni	-6.30284
▁przy	-6.32668
d	-6.32805
ka	-6.34839
ła	-6.36337
ej	-6.36685
ny	-6.42478
c	-6.43395
ami	-6.43472
▁prze	-6.45365
ki	-6.46323
▁pod	-6.46811
n	-6.47585
ło	-6.47627
▁jak	-6.48738
▁dla	-6.49423
▁Po	-6.49568
sz	-6.50071
▁są	-6.50533
ego	-6.52545
▁ma	-6.52993
ce	-6.59021
)	-6.5949
nych	-6.60287
cie	-6.608
p	-6.60826
owych	-6.62464
▁S	-6.66959
▁tego	-6.66974
l	-6.67717
owe	-6.69199
▁co	-6.70005
▁s	-6.71171
?	-6.72054
▁A	-6.72187
▁które	-6.74214
no	-6.76407
▁Z	-6.77338
g	-6.78076
ją	-6.79646
▁ze	-6.82198
b	-6.82937
▁ustawy	-6.84414
ty	-6.84631
▁czy	-6.85037
r	-6.86702
▁Na	-6.87052
ły	-6.87921
in	-6.88341
my	-6.88509
le	-6.89029
ych	-6.89335
▁O	-6.89999
▁tej	-6.91539
).	-6.91582
wa	-6.92127
ż	-6.92864
▁m	-6.9339
owej	-6.93985
ta	-6.95536
la	-6.96286
▁ale	-6.97088
▁1	-6.97105
ną	-6.97295
▁I	-6.97609
cy	-6.97745
owego	-6.98338
uje	-7.00589
▁lub	-7.00969
▁także	-7.02076
▁również	-7.04134
▁P	-7.06899
ia	-7.0692
om	-7.07754
▁Za	-7.07791
by	-7.07959
ci	-7.09829
▁będzie	-7.09866
ko	-7.10066
dzie	-7.10442
ek	-7.10666
owy	-7.10881
rze	-7.11334
nej	-7.11963
▁U	-7.12465
▁był	-7.12993
▁tak	-7.14371
▁roz	-7.14853
nego	-7.15259
▁nad	-7.15604
wi	-7.16938
▁bo	-7.16946
ś	-7.17162
▁jako	-7.17274
▁może	-7.19361
▁tylko	-7.19616
owa	-7.20246
▁został	-7.21091
▁re	-7.21243
da	-7.21847
▁te	-7.21869
▁jego	-7.22592
▁K	-7.22884
▁który	-7.22954
st	-7.2311
ku	-7.24979
▁być	-7.252
zy	-7.25698
▁2	-7.26419
▁dnia	-7.26755
nym	-7.26967
▁już	-7.27308
▁bardzo	-7.29441
▁Do	-7.2993
▁Nie	-7.29989
▁3	-7.30883
▁ten	-7.31221
▁przed	-7.31437
▁też	-7.31696
▁tych	-7.31811
enia	-7.3184
▁19	-7.32498
ń	-7.34049
te	-7.35725
ować	-7.37404
wo	-7.37427
▁ich	-7.37806
er	-7.38044
owi	-7.38097
ra	-7.39504
gi	-7.39708
▁mi	-7.40003
▁jednak	-7.40451
owania	-7.40631
),	-7.41603
owym	-7.43033
niu	-7.43368
czy	-7.43541
od	-7.44004
to	-7.44056
enie	-7.44873
ar	-7.44914
▁pracy	-7.44918
▁pan	-7.45358
ga	-7.45369
▁p	-7.4554
▁Od	-7.45657
▁bez	-7.45987
po	-7.46553
ca	-7.466
▁lat	-7.46603
ze	-7.46621
▁B	-7.47058
re	-7.47111
en	-7.47265
ja	-7.47327
▁art	-7.47454
▁de	-7.47695
f	-7.47812
bi	-7.47957
ową	-7.48512
ym	-7.48824
acji	-7.49077
za	-7.49229
cz	-7.49597
tu	-7.51218
or	-7.51267
▁go	-7.51736
▁M	-7.52841
dy	-7.52863
ści	-7.52934
▁było	-7.53643
▁E	-7.54031
▁ta	-7.54409
▁ob	-7.54527
ję	-7.54831
▁G	-7.55352
▁jej	-7.55399
ma	-7.56505
al	-7.57288
▁To	-7.58271
▁by	-7.58736
▁4	-7.59619
▁18	-7.60437
an	-7.60496
▁Czy	-7.60841
▁Wy	-7.6161
▁D	-7.6173
...	-7.62024
ry	-7.6218
si	-7.62696
P	-7.62838
▁osób	-7.63159
mu	-7.63479
S	-7.63551
ro	-7.63787
ur	-7.64038
cja	-7.64678
el	-7.64824
ków	-7.65525
▁ko	-7.65979
▁która	-7.66225
do	-7.6784
lo	-7.68048
▁aby	-7.68497
▁można	-7.68641
wie	-7.71209
▁państwa	-7.71354
▁zł	-7.71843
▁g	-7.72611
ował	-7.72924
▁C	-7.73037
▁których	-7.73935
dzi	-7.74297
ska	-7.74649
▁była	-7.74878
owanie	-7.75598
pi	-7.76123
ow	-7.77074
D	-7.77492
ii	-7.77538
▁rząd	-7.77814
ują	-7.77897
wy	-7.7798
▁5	-7.7832
is	-7.78568
▁Ma	-7.78574
iem	-7.78819
je	-7.79365
▁T	-7.7941
▁spraw	-7.79425
A	-7.80023
ką	-7.80704
▁jeszcze	-7.81328
sze	-7.81655
▁poseł	-7.82643
kę	-7.8268
owo	-7.82865
▁pro	-7.82919
de	-7.83898
▁zakresie	-7.84149
▁6	-7.84309
▁latach	-7.84665
owane	-7.847
cji	-7.85332
▁in	-7.85382
C	-7.85616
▁były	-7.8606
▁e	-7.8648
lu	-7.86491
▁iż	-7.86491
ona	-7.86655
ść	-7.87038
one	-7.871
szy	-7.87552
▁gdzie	-7.87946
jących	-7.88297
sta	-7.8856
▁sposób	-7.88663
▁będą	-7.88678
ności	-7.88855
at	-7.88887
▁innych	-7.88945
▁kon	-7.89008
że	-7.89058
ał	-7.89239
on	-7.89539
ski	-7.89824
es	-7.90418
jąc	-7.9062
ania	-7.90676
nik	-7.90737
skiego	-7.9169
▁pana	-7.91774
▁została	-7.92146
▁sprawie	-7.92626
ność	-7.92805
▁mają	-7.93141
ać	-7.93264
M	-7.93378
sza	-7.93507
zna	-7.93573
ba	-7.93631
▁F	-7.93634
▁niż	-7.93776
▁je	-7.941
▁10	-7.94265
▁Polsce	-7.94677
bo	-7.95033
▁projekt	-7.95265
▁więc	-7.95392
cza	-7.95442
▁Polski	-7.95574
mo	-7.95738
▁ust	-7.95937
▁prac	-7.96095
acja	-7.96433
▁związku	-7.96568
K	-7.96612
cze	-7.97021
W	-7.97994
eniu	-7.98309
owany	-7.98457
▁Ko	-7.98523
▁należy	-7.98882
▁tu	-7.9924
cia	-7.99384
zie	-7.99555
▁prawa	-7.99707
ony	-7.99818
▁miejsce	-7.99922
▁7	-8.00592
00	-8.00799
eń	-8.00896
▁Ja	-8.00982
▁k	-8.0126
I	-8.02642
T	-8.02696
E	-8.03309
▁Jest	-8.03718
ono	-8.04163
ży	-8.0456
ter	-8.04809
sa	-8.0501
▁celu	-8.05104
▁projektu	-8.0528
ali	-8.05355
▁ja	-8.05394
▁Mo	-8.0577
▁części	-8.05951
▁środków	-8.06282
sy	-8.07168
▁czasie	-8.07255
pa	-8.07318
▁Re	-8.07401
pie	-8.07425
▁którzy	-8.07474
sty	-8.07785
▁praw	-8.0782
R	-8.08449
▁działania	-8.08566
▁między	-8.08914
B	-8.09328
skiej	-8.09525
▁8	-8.09943
▁nr	-8.09955
▁którym	-8.1019
ru	-8.10572
▁sobie	-8.1064
▁Le	-8.10764
ując	-8.10834
▁15	-8.11737
▁mogą	-8.11828
▁przypadku	-8.12242
kład	-8.12719
owie	-8.1332
▁wszystkich	-8.13388
tor	-8.14356
▁posiada	-8.15032
▁sta	-8.15107
owana	-8.15175
▁Mi	-8.15385
mie	-8.15593
ri	-8.15913
▁17	-8.15945
ob	-8.16119
▁da	-8.16125
▁Warszawa	-8.16368
▁Bo	-8.16433
sko	-8.16492
sto	-8.16639
O	-8.1669
G	-8.16821
▁podczas	-8.16873
▁żeby	-8.16885
▁naj	-8.17321
ię	-8.17332
▁której	-8.17439
▁gdy	-8.17627
▁dzieci	-8.17706
2	-8.18731
▁12	-8.19036
▁wieku	-8.19114
praw	-8.19672
▁nawet	-8.20279
skich	-8.20411
▁N	-8.2062
▁Li	-8.21181
▁zostały	-8.21182
▁ok	-8.21286
▁ramach	-8.21365
kiem	-8.21565
kon	-8.22307
▁Przy	-8.22349
et	-8.22443
▁chodzi	-8.22577
▁20	-8.22871
ing	-8.22947
▁ro	-8.23376
łu	-8.23631
▁czas	-8.23809
os	-8.23848
▁posła	-8.23958
anie	-8.24285
▁ustaw	-8.2435
▁takie	-8.24988
ców	-8.25409
▁li	-8.25571
▁kiedy	-8.25696
▁pytanie	-8.2597
su	-8.26124
▁wielu	-8.26159
ak	-8.2648
▁16	-8.26541
ację	-8.26651
ź	-8.2689
▁rzecz	-8.26941
daw	-8.274
▁kraju	-8.27454
▁Pa	-8.27609
us	-8.27773
▁nich	-8.28076
▁mu	-8.28079
▁Ra	-8.28234
▁sp	-8.28478
▁on	-8.28707
▁9	-8.28722
stęp	-8.28836
▁Jak	-8.28868
▁2012	-8.2921
▁posłów	-8.29236
▁ministra	-8.29476
▁tam	-8.29591
▁plan	-8.29819
▁wiele	-8.30018
am	-8.30183
ad	-8.30514
▁wszystkim	-8.30756
rzy	-8.30774
liśmy	-8.31108
▁Prze	-8.31795
▁sytuacji	-8.32007
▁udział	-8.32448
nika	-8.32542
zi	-8.32614
skim	-8.32644
cą	-8.33168
▁temat	-8.33228
▁możliwości	-8.33286
▁przeciw	-8.33433
▁II	-8.33685
▁później	-8.34171
▁organ	-8.34834
▁wyda	-8.35101
▁skład	-8.35294
▁jakie	-8.35458
pro	-8.35953
N	-8.35957
▁Ba	-8.36073
▁V	-8.36077
▁strony	-8.36174
U	-8.3632
im	-8.36431
▁14	-8.36685
▁we	-8.367
▁Pod	-8.36995
▁potrzeb	-8.37086
ier	-8.37102
owanych	-8.37741
▁działalności	-8.37807
▁raz	-8.37954
bra	-8.37979
iz	-8.38098
h	-8.38295
▁stanowi	-8.38305
L	-8.38359
▁miasta	-8.38457
▁L	-8.38526
▁Pan	-8.38546
▁Pi	-8.39485
▁ponad	-8.39507
łą	-8.39683
waż	-8.39898
▁ci	-8.39938
▁Ka	-8.40486
▁fa	-8.40508
▁św	-8.40829
▁minister	-8.40968
▁Sejm	-8.41225
▁ka	-8.41228
▁osoby	-8.41363
F	-8.4149
ście	-8.41784
▁Sz	-8.42397
▁pi	-8.42771
▁cen	-8.4291
▁Unii	-8.42937
ić	-8.42972
▁dwa	-8.43305
ości	-8.43582
▁zmiany	-8.43596
▁kar	-8.43713
▁zmian	-8.43759
▁miał	-8.4395
▁Co	-8.43992
▁Komisji	-8.44167
tów	-8.44202
▁R	-8.44456
▁natomiast	-8.44476
▁system	-8.4455
▁jeśli	-8.44651
ator	-8.44687
▁wszystkie	-8.44988
▁zasad	-8.45066
sie	-8.45138
▁pomocy	-8.4531
jący	-8.45326
▁Ro	-8.4535
▁ba	-8.45667
jące	-8.45696
ent	-8.45965
▁Te	-8.45966
5	-8.46057
wiąz	-8.46109
▁13	-8.46184
▁11	-8.46322
▁podstawie	-8.46414
▁ha	-8.46467
▁mo	-8.46797
▁30	-8.46898
kry	-8.46919
▁prawo	-8.46927
fer	-8.47521
onych	-8.47542
ment	-8.47939
▁mnie	-8.48206
▁In	-8.48207
▁tys	-8.48212
▁wynika	-8.48297
▁Pro	-8.48314
▁którego	-8.48927
ość	-8.48975
▁uwagę	-8.49063
▁czyli	-8.49323
nu	-8.49395
▁wymaga	-8.49553
▁zna	-8.49795
str	-8.49961
rów	-8.50078
rza	-8.50122
▁informacji	-8.50151
▁Ar	-8.50192
▁stycznia	-8.50278
▁możliwość	-8.50364
co	-8.50615
rod	-8.50853
▁komisji	-8.50893
▁Europejskiej	-8.5123
nę	-8.51318
▁takich	-8.51343
▁kilka	-8.51348
wał	-8.51392
der	-8.51392
ają	-8.51408
łem	-8.51412
kami	-8.51591
cje	-8.52217
▁Tak	-8.52308
ot	-8.52312
sk	-8.52371
▁fakt	-8.52595
▁czasu	-8.52608
ed	-8.52655
th	-8.52666
▁wysokości	-8.52813
▁rynku	-8.52966
▁gór	-8.53097
as	-8.53116
▁mln	-8.53319
ck	-8.53372
ul	-8.53473
gra	-8.53502
▁mieszkańców	-8.53607
▁życia	-8.53835
▁tra	-8.53861
▁dzie	-8.53941
min	-8.54213
3	-8.54385
▁uzna	-8.54389
wania	-8.5439
nymi	-8.54403
▁bardziej	-8.54516
kach	-8.54555
ew	-8.54567
wia	-8.54634
▁Ch	-8.54749
um	-8.5487
▁rad	-8.55037
acje	-8.55264
▁jedno	-8.55336
prac	-8.55513
▁d	-8.55621
▁Ob	-8.55668
▁pani	-8.55902
wol	-8.5591
un	-8.56089
ńskiego	-8.56153
▁kolej	-8.56612
▁2013	-8.56714
▁dotyczące	-8.56803
▁np	-8.56905
▁sz	-8.56957
▁star	-8.57
ana	-8.57084
▁właśnie	-8.57232
▁zgodnie	-8.57277
skie	-8.57296
▁okresie	-8.5742
Z	-8.57465
▁problem	-8.575
▁państw	-8.57652
gu	-8.5784
▁tę	-8.5789
vi	-8.57971
▁wobec	-8.58072
raz	-8.58092
owano	-8.5811
stwa	-8.58262
▁Ta	-8.58328
ając	-8.58481
ol	-8.58491
nt	-8.58505
▁2010	-8.58711
▁rodzin	-8.58711
▁zarówno	-8.58755
▁znajduje	-8.58755
łam	-8.58825
▁dwóch	-8.58848
▁sie	-8.58942
▁H	-8.58974
▁gra	-8.5902
▁dniu	-8.59268
▁rok	-8.5928
war	-8.59331
cznie	-8.59437
▁często	-8.59842
▁program	-8.59886
dz	-8.59979
cję	-8.6008
du	-8.6013
▁poprawki	-8.6043
▁cel	-8.6054
▁terenie	-8.60584
se	-8.60636
▁jeżeli	-8.60888
kom	-8.60902
▁ludzi	-8.60913
eni	-8.6098
▁nas	-8.6139
▁nim	-8.61702
▁2009	-8.61808
▁część	-8.6194
▁gminy	-8.61944
oli	-8.6205
▁mówi	-8.62157
▁Kon	-8.62191
▁samym	-8.623
▁lecz	-8.62323
we	-8.62363
acją	-8.62445
▁trzeba	-8.62615
ników	-8.6285
▁działań	-8.62907
▁przepisów	-8.63206
tem	-8.63249
▁więcej	-8.63592
▁br	-8.63635
bie	-8.63745
▁wcześniej	-8.63914
▁poz	-8.63984
▁realizacji	-8.64083
▁grudnia	-8.6411
uję	-8.64185
▁Rady	-8.64355
man	-8.64362
▁Proszę	-8.64422
▁wraz	-8.64644
▁względu	-8.64652
▁op	-8.64803
▁De	-8.64817
▁pa	-8.64831
▁2008	-8.64846
▁obecnie	-8.64951
▁inne	-8.64971
ską	-8.65028
▁systemu	-8.65042
▁2011	-8.65209
nki	-8.65217
wal	-8.65294
ó	-8.65295
▁około	-8.65368
0	-8.65395
por	-8.65449
▁sam	-8.65534
▁Był	-8.65571
▁stanie	-8.65575
▁mam	-8.65754
ll	-8.6582
▁tutaj	-8.65828
tek	-8.65881
▁września	-8.65911
▁albo	-8.66014
chodzi	-8.66035
▁życie	-8.66114
▁swoje	-8.66311
niem	-8.66446
ża	-8.6645
▁par	-8.66566
czu	-8.66631
▁im	-8.67211
alne	-8.67336
▁czym	-8.67419
tel	-8.67455
ti	-8.67564
ok	-8.67772
zor	-8.67784
ół	-8.67795
usz	-8.67801
leg	-8.68097
owaniu	-8.68168
▁odpowiedzi	-8.68216
▁poprzez	-8.68351
▁Jeśli	-8.68426
▁lata	-8.6854
▁lipca	-8.69181
▁czerwca	-8.69233
tra	-8.69313
▁ży	-8.69321
▁jedynie	-8.69337
eniem	-8.69355
kar	-8.69592
nię	-8.69755
▁Ha	-8.69801
▁ją	-8.69886
▁Al	-8.70074
bor	-8.70094
▁trzy	-8.70295
▁polskich	-8.70462
▁jeden	-8.70525
bu	-8.70545
nicy	-8.70637
▁proszę	-8.70745
v	-8.71109
▁marca	-8.7117
▁przede	-8.71178
▁poza	-8.71217
▁dotyczy	-8.71427
▁zawiera	-8.71475
bli	-8.71495
▁one	-8.71504
▁musi	-8.71559
▁związane	-8.71717
ujących	-8.71961
▁pierwszy	-8.71968
▁maja	-8.71973
dze	-8.72015
▁ponieważ	-8.72084
nk	-8.72178
lec	-8.72184
▁cz	-8.72315
▁gmin	-8.72369
cją	-8.72372
per	-8.72432
ut	-8.72735
fi	-8.72752
▁La	-8.72849
▁usług	-8.72884
sku	-8.72984
▁2007	-8.73059
ha	-8.73072
▁Ci	-8.73283
it	-8.73677
płat	-8.73851
dni	-8.74405
cer	-8.74639
▁ani	-8.74768
owali	-8.75113
▁samo	-8.75117
▁pie	-8.75151
▁spo	-8.7517
▁realiz	-8.75315
▁dzisiaj	-8.75399
zd	-8.75413
cych	-8.75508
▁me	-8.7551
now	-8.75593
obo	-8.75627
gen	-8.7571
owała	-8.75762
ujemy	-8.75838
tki	-8.75914
▁Ale	-8.75977
ge	-8.7628
▁budżetu	-8.76296
pon	-8.76685
dr	-8.76873
▁przykład	-8.76901
▁of	-8.77027
ir	-8.77091
▁zostało	-8.77229
▁rządu	-8.7723
▁ochrony	-8.77399
▁podatku	-8.77455
▁kilku	-8.77567
▁powiedzieć	-8.77568
▁okres	-8.7761
głos	-8.77854
▁przyzna	-8.77898
▁początku	-8.77962
1	-8.77983
▁jednym	-8.78094
▁kwietnia	-8.7815
▁nieruchomości	-8.78301
▁pow	-8.78303
▁imieniu	-8.78346
▁b	-8.78429
▁specjal	-8.78488
▁Jeżeli	-8.78508
owski	-8.78935
▁Da	-8.78996
prezent	-8.79114
▁proces	-8.79205
▁zmianie	-8.79243
▁danych	-8.79245
▁Sejmu	-8.79589
▁października	-8.79842
▁prób	-8.79909
pis	-8.79958
▁mamy	-8.80245
▁film	-8.80355
▁firm	-8.80434
szych	-8.80482
▁pracowników	-8.80637
di	-8.80679
▁rozwoju	-8.80746
fa	-8.80766
▁publicznych	-8.80824
H	-8.80854
▁Prawo	-8.80925
-19	-8.8099
ste	-8.81014
▁J	-8.81039
▁zaś	-8.81137
▁którą	-8.81152
ron	-8.81311
▁wpływ	-8.81317
aty	-8.81365
cu	-8.81366
▁zdrowia	-8.81405
ią	-8.81462
ró	-8.81546
ckiego	-8.81565
▁2006	-8.81578
▁przedsiębiorstw	-8.81698
▁środki	-8.81759
▁bank	-8.81834
ił	-8.81849
▁miejsc	-8.81928
▁form	-8.82113
cki	-8.8218
ński	-8.82309
▁su	-8.82347
▁osob	-8.82428
ymi	-8.82447
fik	-8.82528
▁stan	-8.82658
edług	-8.82664
me	-8.82681
▁t	-8.82786
▁sza	-8.82967
rę	-8.8304
▁ustawie	-8.83213
▁typu	-8.83239
il	-8.83243
▁brak	-8.83306
tr	-8.83358
zu	-8.83359
▁sto	-8.83391
▁niektórych	-8.83411
▁bowiem	-8.83455
▁25	-8.83551
▁poli	-8.83568
▁wojny	-8.83833
▁swoich	-8.83908
cznych	-8.83923
▁sierpnia	-8.83948
▁2014	-8.83983
▁następnie	-8.84113
20	-8.84196
ane	-8.84239
▁stanu	-8.84505
▁dlatego	-8.84523
4	-8.84621
ster	-8.84822
▁wykona	-8.84972
▁dobrze	-8.85281
▁znajdują	-8.85427
▁sąd	-8.85475
▁pytania	-8.85538
▁se	-8.85583
▁państwo	-8.85595
szą	-8.85604
io	-8.85651
▁tzw	-8.85733
▁temu	-8.85757
▁powodu	-8.85803
▁ustawa	-8.8587
▁Ca	-8.86057
▁chwili	-8.86088
▁wyniku	-8.86203
▁stanowisko	-8.86273
▁Polska	-8.86394
▁Bi	-8.86581
▁2004	-8.86616
▁Ponadto	-8.8664
▁listopada	-8.86701
▁kom	-8.86724
▁pre	-8.86826
▁Be	-8.86869
owymi	-8.86918
▁taki	-8.86962
▁dzięki	-8.86989
rz	-8.87068
letni	-8.87089
dział	-8.87175
▁szko	-8.87181
metr	-8.87236
▁różnych	-8.87258
ks	-8.8775
▁głosu	-8.87792
▁zadań	-8.87828
▁działa	-8.88035
▁So	-8.88291
br	-8.88385
▁decyzji	-8.88419
twierdz	-8.88477
▁Mar	-8.88589
▁charakter	-8.88658
▁klub	-8.88765
▁średni	-8.88935
sław	-8.89114
▁składa	-8.89141
▁miała	-8.89192
▁syn	-8.89324
id	-8.89333
▁postępowania	-8.89505
zenie	-8.89587
▁dokona	-8.89699
▁dostęp	-8.89929
dą	-8.89979
▁rozwiązania	-8.90224
▁Ho	-8.9027
jącego	-8.90308
ton	-8.90328
▁pas	-8.90418
▁dni	-8.90569
6	-8.90655
▁Roz	-8.9066
tur	-8.90692
▁stron	-8.90807
pad	-8.90827
▁pomoc	-8.90907
▁Polskiej	-8.91109
▁świadczeń	-8.9113
▁głos	-8.91197
▁świata	-8.91347
▁grupy	-8.91385
▁umowy	-8.91455
▁f	-8.91474
dow	-8.91495
▁miejscu	-8.91514
ńskiej	-8.91597
pe	-8.91603
▁nowych	-8.91746
rząd	-8.91765
▁kontrol	-8.91951
stosow	-8.9199
kowa	-8.91991
ers	-8.92009
▁No	-8.92422
wane	-8.92489
▁regul	-8.92531
▁kraj	-8.92557
▁the	-8.92568
tych	-8.92613
▁polskiego	-8.9266
czne	-8.92769
▁2000	-8.92924
tar	-8.92941
lan	-8.93161
alnie	-8.93212
▁si	-8.93332
▁wniosek	-8.93407
V	-8.93467
kra	-8.93473
lar	-8.93591
▁mieszka	-8.93739
▁swoim	-8.93781
▁Jego	-8.9379
▁lutego	-8.93827
lin	-8.93964
leż	-8.94037
▁Ś	-8.94074
woła	-8.9418
twór	-8.9431
▁24	-8.94373
▁pomiędzy	-8.94465
▁jaki	-8.945
50	-8.94537
tow	-8.9455
▁otrzymał	-8.94633
▁lek	-8.9468
▁Go	-8.94828
ss	-8.95074
zo	-8.95089
Rzeczypospolitej	-8.95111
▁ła	-8.95152
▁bu	-8.95174
▁koszt	-8.95189
try	-8.95214
nictwa	-8.95254
▁SA	-8.95295
▁wartości	-8.95389
▁podstaw	-8.95417
▁działalność	-8.95431
alnej	-8.95504
▁Kar	-8.95512
▁no	-8.95518
czna	-8.95568
▁pierwszym	-8.95586
▁Sa	-8.95599
raż	-8.95717
▁programu	-8.95745
▁kosztów	-8.95873
alnych	-8.95887
▁mieć	-8.95895
ve	-8.96033
▁wtedy	-8.96174
▁nowe	-8.96249
▁ona	-8.96311
▁rodzaju	-8.96442
▁21	-8.96539
▁wszystko	-8.96981
▁pierwsze	-8.97004
▁koniec	-8.9716
▁gdyż	-8.97353
▁głównie	-8.97438
▁Sta	-8.97511
▁wie	-8.97591
▁Natomiast	-8.97666
ciu	-8.97763
▁trakcie	-8.97897
ciąg	-8.97901
eli	-8.9796
▁Ministerstwo	-8.98039
end	-8.98081
ten	-8.98147
▁innymi	-8.98248
▁zostanie	-8.98265
10	-8.98281
ant	-8.9836
ała	-8.98361
▁świat	-8.98485
▁bi	-8.98695
lne	-8.98797
rzęd	-8.98963
▁organizacji	-8.98966
▁nauk	-8.99106
ujące	-8.99238
era	-8.99245
yw	-8.99313
▁(19	-8.99319
nek	-8.99343
rob	-8.99559
▁zakup	-8.99627
▁Spraw	-8.99717
▁aż	-8.99725
▁2005	-8.99825
czyć	-8.99975
▁22	-9.00043
▁Kto	-9.00131
▁wybor	-9.00183
▁Ku	-9.00197
▁dokument	-9.00207
▁teraz	-9.00214
oł	-9.00327
▁gospodar	-9.00381
▁poprzedni	-9.00403
▁pełni	-9.00555
ano	-9.00621
▁końca	-9.00705
▁zawsze	-9.00834
▁ż	-9.00839
▁Gór	-9.01102
cjon	-9.01214
gar	-9.01347
wali	-9.01426
two	-9.01455
▁dotyczących	-9.01494
▁związanych	-9.01526
▁drugiej	-9.01535
▁miejsca	-9.01882
kier	-9.02197
▁opieki	-9.02333
▁powierzchni	-9.0245
▁szczególnie	-9.02715
be	-9.02832
▁czego	-9.02836
ist	-9.02874
szcz	-9.02903
▁gro	-9.02952
kr	-9.03038
▁swoją	-9.03078
▁sko	-9.03226
▁szkoły	-9.03246
▁dotychczas	-9.03356
▁kto	-9.03515
▁gospodarki	-9.03536
staw	-9.03745
ner	-9.03889
cen	-9.03972
czek	-9.04007
śni	-9.04024
czny	-9.04081
▁firmy	-9.04185
▁Przed	-9.04374
strze	-9.04449
▁środowiska	-9.04527
▁ni	-9.04546
▁polskiej	-9.04566
▁polityki	-9.04601
licz	-9.04846
so	-9.0488
jącym	-9.0518
▁współ	-9.05216
▁określa	-9.05245
▁c	-9.05266
las	-9.05266
par	-9.05309
▁swojej	-9.05392
▁pracę	-9.05423
ien	-9.05456
▁chce	-9.05582
▁ciągu	-9.05643
niki	-9.05671
aż	-9.05702
▁tytuł	-9.05721
▁Je	-9.05748
▁najbardziej	-9.05772
nd	-9.05774
mp	-9.05962
▁kontroli	-9.05964
▁niej	-9.06014
czą	-9.06022
▁Ni	-9.06045
▁interes	-9.06158
▁prace	-9.06449
wid	-9.06553
▁RP	-9.06565
▁jakim	-9.06622
▁Polskiego	-9.06731
▁wynosi	-9.06784
▁oznacza	-9.06821
sp	-9.0684
ium	-9.06862
▁2001	-9.06988
▁przepisy	-9.07092
▁projekcie	-9.07122
▁23	-9.07344
▁przedmiot	-9.07367
▁obywatel	-9.07416
▁właściciel	-9.07475
łe	-9.07477
▁autor	-9.07509
▁według	-9.07603
▁zatem	-9.07787
▁Komisja	-9.07804
nic	-9.07824
jącą	-9.07873
▁społecznej	-9.07887
tka	-9.07899
▁pierwszej	-9.07972
ic	-9.08122
▁stosunku	-9.08136
▁Wiel	-9.08181
wód	-9.08322
▁dzi	-9.08517
pl	-9.0852
▁be	-9.08604
oną	-9.08626
alnego	-9.08795
cznej	-9.08836
▁produkcji	-9.08875
się	-9.08889
stwo	-9.08959
▁dwie	-9.08989
cka	-9.09029
▁dr	-9.09075
▁zapis	-9.09141
▁medal	-9.09166
res	-9.09205
▁ser	-9.0921
▁porządku	-9.0926
budowa	-9.09324
mar	-9.09384
ard	-9.09443
▁postaci	-9.09445
▁Zgodnie	-9.09485
bit	-9.09516
miesz	-9.09525
▁używa	-9.09546
▁le	-9.09579
▁bezpieczeństwa	-9.09672
▁zadania	-9.09828
▁władz	-9.09832
lon	-9.09836
ho	-9.09908
▁Ju	-9.09925
▁Dlatego	-9.09934
▁Obecnie	-9.10034
łów	-9.10043
▁31	-9.10241
J	-9.10324
▁klubu	-9.10506
7	-9.10598
▁dział	-9.1061
▁zdobył	-9.10684
▁niego	-9.1071
dłuż	-9.10723
▁uważa	-9.10767
▁wsi	-9.10837
cyd	-9.10886
▁zasady	-9.10921
▁mniej	-9.10932
▁Ze	-9.10934
▁sw	-9.10944
▁mar	-9.11003
▁Ministrów	-9.11233
▁budżet	-9.11273
stan	-9.11304
▁ul	-9.11369
kie	-9.11384
▁Du	-9.11389
czył	-9.11504
▁ś	-9.11526
▁An	-9.1154
▁Mam	-9.11628
▁Bar	-9.1175
form	-9.11796
ór	-9.11804
▁Państwa	-9.1184
alny	-9.11869
puszcz	-9.11906
land	-9.12003
▁lokal	-9.12179
▁ho	-9.12185
▁wojsk	-9.12198
▁Należy	-9.12236
nów	-9.12241
8	-9.12334
▁sprawy	-9.12357
▁wówczas	-9.12372
▁stronie	-9.12395
tk	-9.12594
▁Cz	-9.12602
▁gry	-9.12636
mor	-9.12802
▁większości	-9.12953
▁warunki	-9.12988
rzyst	-9.12989
▁uwagi	-9.13059
▁samorząd	-9.13081
▁siebie	-9.1312
▁otrzyma	-9.13143
czni	-9.1327
▁pewne	-9.13299
son	-9.1331
▁woj	-9.13356
tę	-9.13426
▁...	-9.13465
acyjnych	-9.13489
▁27	-9.13574
▁tytułu	-9.13706
▁Me	-9.13754
▁2003	-9.13754
▁termin	-9.13774
▁wśród	-9.13778
▁norm	-9.13787
▁Ru	-9.13826
dę	-9.13841
30	-9.13847
▁takiej	-9.13941
▁Gra	-9.13957
▁jednostek	-9.13972
▁ku	-9.13974
▁dwu	-9.14225
▁rodziny	-9.14225
▁kobiet	-9.14253
▁Senatu	-9.14338
▁oczywiście	-9.14404
▁poszczególnych	-9.14404
▁prawie	-9.14445
▁odbywa	-9.14474
▁nic	-9.14507
▁służby	-9.14606
▁wyłącznie	-9.14637
▁jednego	-9.1465
ckiej	-9.14662
dyn	-9.14754
tą	-9.14761
daje	-9.14768
duk	-9.14804
ryn	-9.14806
zenia	-9.14858
▁panie	-9.14899
▁sieci	-9.149
▁26	-9.1498
▁pkt	-9.15141
▁ran	-9.15143
▁inform	-9.15147
▁coś	-9.1516
lę	-9.15211
kolwiek	-9.15247
jącej	-9.15248
czną	-9.15257
śnie	-9.15317
▁50	-9.1534
▁Su	-9.15372
▁razem	-9.15394
ver	-9.15471
tro	-9.15513
▁pół	-9.15533
▁Europy	-9.15555
▁województwa	-9.15589
▁Jan	-9.15659
▁powinien	-9.15685
op	-9.15699
▁kr	-9.15707
▁administracji	-9.15795
▁kwestii	-9.16042
▁wzrost	-9.16203
rą	-9.16295
niej	-9.16365
onego	-9.16405
▁Warszawie	-9.16462
▁jednostki	-9.16688
art	-9.16738
ięk	-9.16979
▁poziomie	-9.17013
czę	-9.17052
den	-9.17052
nął	-9.17116
powie	-9.17158
▁Se	-9.17163
▁jednej	-9.1729
ber	-9.17307
▁wniosku	-9.1732
▁Podczas	-9.1733
▁mas	-9.17461
prze	-9.17515
cznego	-9.17584
▁służb	-9.17829
▁pl	-9.17952
▁naprawdę	-9.17994
▁Bu	-9.1802
▁godzin	-9.18093
sh	-9.1814
▁sukces	-9.18156
ler	-9.18194
ag	-9.18246
▁Lo	-9.18264
▁ziemi	-9.18325
▁X	-9.18403
iczne	-9.18516
spo	-9.18613
▁prostu	-9.18623
▁samorządu	-9.18668
▁sprzeda	-9.18691
niesie	-9.18816
0%	-9.18846
wanie	-9.18925
ke	-9.18995
▁2015	-9.19
▁współpracy	-9.19003
lik	-9.19236
ran	-9.19273
▁takim	-9.19356
▁inwestycji	-9.19401
▁zakład	-9.19447
▁domu	-9.19467
▁Star	-9.19468
▁miejscowości	-9.19582
ion	-9.19748
aniu	-9.19819
▁przekaz	-9.19874
szym	-9.19874
▁punktu	-9.19905
▁rozwiązanie	-9.19914
▁sytuacja	-9.20029
▁so	-9.20098
▁grup	-9.20189
▁ruchu	-9.20194
-20	-9.20249
owskiego	-9.20309
Dz	-9.20337
port	-9.20354
żenia	-9.20366
woj	-9.20449
▁aktyw	-9.20452
▁takiego	-9.20497
bieg	-9.20544
▁każdy	-9.20564
▁liczby	-9.20609
▁poziom	-9.20649
stro	-9.20669
lek	-9.20698
ewski	-9.20795
▁naszym	-9.20851
pokoj	-9.20878
▁bądź	-9.20892
▁mor	-9.20905
py	-9.21261
czo	-9.21264
▁będziemy	-9.21276
▁szpital	-9.21326
olog	-9.21328
gr	-9.21381
▁przedstawia	-9.21396
▁The	-9.21423
▁informacje	-9.2158
lnej	-9.21585
▁sklep	-9.21597
ian	-9.21656
czyn	-9.21661
▁100	-9.21687
▁trzech	-9.2171
▁28	-9.21766
▁drogi	-9.21793
ały	-9.21891
▁Sam	-9.21904
▁mistrzostw	-9.22039
▁obraz	-9.22108
▁dopiero	-9.22172
▁zap	-9.22211
mawia	-9.22211
ng	-9.22342
▁Ga	-9.22356
▁2002	-9.22378
dro	-9.22461
lew	-9.22546
▁klasy	-9.22588
dza	-9.226
hi	-9.22611
▁dziś	-9.22717
▁dzień	-9.22784
▁jednocześnie	-9.22787
czenia	-9.23008
▁km	-9.23045
lnych	-9.2309
▁Naj	-9.23118
▁Projekt	-9.23141
jąca	-9.23238
żyw	-9.23271
▁Świ	-9.23322
▁bada	-9.23336
▁koszty	-9.23371
▁1999	-9.23442
ujący	-9.23524
and	-9.23571
▁konkurs	-9.23612
ąc	-9.23662
▁jakości	-9.23846
▁kształt	-9.24028
▁bud	-9.24076
▁śmierci	-9.2424
encja	-9.24274
ształ	-9.24284
▁świadczenia	-9.24293
czki	-9.24324
▁29	-9.24326
ina	-9.24462
iel	-9.24463
▁miały	-9.2453
▁cały	-9.24637
▁tro	-9.25027
▁spółki	-9.2505
▁punkt	-9.25058
va	-9.25136
▁wprowadza	-9.2517
▁światowej	-9.25178
czej	-9.25188
nosi	-9.25317
▁zwłaszcza	-9.25473
ńczy	-9.25523
▁chyba	-9.25594
▁wspiera	-9.25626
▁warunków	-9.25719
kre	-9.25724
▁naszego	-9.25764
fe	-9.25884
▁zakresu	-9.25889
gę	-9.25992
▁robi	-9.25999
▁la	-9.26171
▁odpowiada	-9.26247
iec	-9.2636
alnym	-9.26383
▁drużyn	-9.26399
15	-9.26411
▁III	-9.26421
icznych	-9.26464
kowi	-9.265
▁Sp	-9.26531
▁Pracy	-9.26629
▁historii	-9.26659
niejsze	-9.26774
▁ak	-9.26776
dzki	-9.26804
▁stanowiska	-9.26865
mówi	-9.27011
pu	-9.27031
▁powiat	-9.27046
obec	-9.27056
▁nowo	-9.27106
tal	-9.27117
ld	-9.27148
kowe	-9.27154
▁kolejne	-9.2725
▁struktur	-9.27385
und	-9.27452
cę	-9.27527
▁prowadzi	-9.27673
dź	-9.27684
▁znalazł	-9.27767
▁Został	-9.27804
ros	-9.27809
▁kierunku	-9.27866
▁sport	-9.27988
lnego	-9.28017
gran	-9.28082
▁finansowych	-9.28094
▁Panie	-9.281
▁trwa	-9.2823
wany	-9.28251
szkol	-9.28264
▁ile	-9.28392
myśl	-9.28411
win	-9.28421
▁Str	-9.2845
cznym	-9.28513
▁ty	-9.28586
▁przyczyn	-9.28627
▁tygodni	-9.28796
▁Pra	-9.28802
▁We	-9.2883
▁Par	-9.28915
▁Si	-9.28944
▁linii	-9.28954
▁rezerw	-9.29013
▁możliwe	-9.29044
▁wydaje	-9.29105
▁coraz	-9.29168
ang	-9.29181
17	-9.29218
sił	-9.29293
▁byli	-9.29347
nąć	-9.29459
ienia	-9.29464
▁chciałbym	-9.29548
ff	-9.29564
rt	-9.29579
▁stanowią	-9.29592
ologii	-9.29693
▁powinny	-9.29769
gn	-9.29778
▁znacznie	-9.29824
▁prezent	-9.2999
▁polega	-9.30065
part	-9.30184
ios	-9.30206
▁członków	-9.30337
brze	-9.30372
dar	-9.30412
▁pewno	-9.30419
▁Fa	-9.3042
▁prawnych	-9.30547
▁proponuje	-9.30593
▁panów	-9.30626
wer	-9.30663
▁pozwala	-9.30851
▁ktoś	-9.30883
▁skr	-9.30951
zji	-9.30965
▁Jednak	-9.31043
▁Zdrowia	-9.31102
▁pań	-9.31139
▁podmiot	-9.31406
▁zbyt	-9.3143
▁trzeci	-9.3148
▁inter	-9.31501
▁budowy	-9.31516
any	-9.31518
▁określone	-9.31597
▁obszar	-9.31625
aw	-9.31627
▁wys	-9.31806
rad	-9.31848
▁publicznej	-9.32045
▁sa	-9.32055
▁pos	-9.3208
▁kultur	-9.32099
pada	-9.32117
▁XX	-9.32141
rek	-9.32155
zę	-9.32163
ud	-9.32191
▁swojego	-9.32212
rozum	-9.32231
▁jedną	-9.32232
pełni	-9.32393
est	-9.32395
▁rzeczy	-9.32414
▁region	-9.32416
gł	-9.32462
▁wykaz	-9.32467
▁miesięcy	-9.32488
▁uzyskał	-9.325
szczy	-9.32537
log	-9.32636
▁kas	-9.32663
▁badania	-9.32678
nka	-9.32684
stanowi	-9.32698
tyka	-9.33007
▁Ministerstwa	-9.33187
▁biur	-9.33228
mat	-9.33239
▁dużo	-9.3327
▁opinii	-9.33283
▁liczba	-9.33293
▁ww	-9.33318
bud	-9.3339
owanego	-9.33493
▁naszej	-9.33539
▁For	-9.33617
nią	-9.3377
▁ar	-9.33777
cego	-9.34069
▁najmniej	-9.34082
czeń	-9.34104
▁analiz	-9.3415
▁Jednocześnie	-9.34156
▁rozwiązań	-9.34156
▁miast	-9.34171
▁wątpliwości	-9.34189
dzenia	-9.34194
▁chciał	-9.34196
▁Br	-9.34212
▁Sto	-9.34213
owały	-9.34336
▁and	-9.3439
sji	-9.34464
▁występ	-9.3456
ac	-9.34564
▁niedo	-9.34592
sen	-9.34622
szuk	-9.34643
▁komp	-9.34699
▁duże	-9.3474
krzy	-9.34756
▁sił	-9.34775
▁Pani	-9.34986
▁płac	-9.35054
owców	-9.35133
rot	-9.35178
▁sprzedaży	-9.35193
▁Dla	-9.3527
▁drodze	-9.35318
▁stara	-9.3533
▁San	-9.35506
▁zawarte	-9.35522
▁zastęp	-9.35561
▁zakłada	-9.35584
▁zespołu	-9.35585
alna	-9.35682
▁finansów	-9.35738
▁powstał	-9.35762
ryt	-9.3583
west	-9.35853
mer	-9.35866
bro	-9.35946
▁Kolej	-9.35953
wart	-9.35964
▁pis	-9.35965
▁formie	-9.35971
▁Sk	-9.35979
czony	-9.36056
▁systemie	-9.36063
▁str	-9.36077
eś	-9.36114
trak	-9.36169
▁pł	-9.36186
▁instytucji	-9.36189
▁ponownie	-9.36258
▁język	-9.36294
▁Di	-9.36297
▁sk	-9.36367
▁obu	-9.36397
iej	-9.36422
▁Rad	-9.36658
X	-9.36699
▁nowego	-9.36757
gor	-9.36841
%	-9.36852
▁płyt	-9.36979
▁powiedział	-9.37028
▁tyle	-9.37089
▁Jakie	-9.37196
▁auto	-9.37353
▁1998	-9.37512
ill	-9.37583
trz	-9.37615
łę	-9.37627
▁miesiąc	-9.3766
czych	-9.37662
ięci	-9.3769
▁Lu	-9.37695
gro	-9.37749
▁pozwoli	-9.37785
ład	-9.37802
patrz	-9.37802
▁Jo	-9.37953
▁powinna	-9.3806
▁potem	-9.38124
▁ki	-9.38161
▁świecie	-9.38162
let	-9.3823
▁standard	-9.38233
▁gospodarstw	-9.38252
▁prowadzone	-9.38264
▁spa	-9.3827
pływ	-9.38349
▁mimo	-9.38421
czka	-9.38516
12	-9.3855
▁Są	-9.38647
▁mówił	-9.38723
owanej	-9.38741
▁powod	-9.38922
ąż	-9.38945
▁kontakt	-9.38955
▁niez	-9.39039
▁las	-9.3917
▁Wojsk	-9.39213
▁zde	-9.39267
▁szereg	-9.39301
▁teren	-9.39309
▁zbior	-9.39523
▁myśl	-9.39548
alną	-9.39553
czenie	-9.39588
▁kolor	-9.39603
▁odda	-9.39616
▁żadnych	-9.39683
mierz	-9.39691
▁rękę	-9.39722
szer	-9.39762
wać	-9.39803
▁szkół	-9.39857
11	-9.3986
▁roślin	-9.39893
▁umożliwia	-9.39911
14	-9.39942
kowych	-9.3998
▁mld	-9.39991
▁całej	-9.40041
▁tj	-9.40071
▁projektów	-9.40099
łożony	-9.40196
▁szybko	-9.40242
▁odpowiedni	-9.40265
lą	-9.40284
▁obywateli	-9.40325
▁powinno	-9.40351
odzi	-9.40371
tan	-9.40562
▁opis	-9.40589
rzu	-9.40614
▁ostatnich	-9.40624
▁Fi	-9.4064
▁internet	-9.40744
▁przeciwko	-9.40764
▁my	-9.40786
czone	-9.40804
16	-9.40856
▁oddział	-9.40907
▁Funduszu	-9.40918
les	-9.40935
▁1997	-9.40946
▁Pu	-9.4095
szedł	-9.40967
com	-9.41092
▁tą	-9.41263
▁PKP	-9.41265
ckich	-9.41279
ńskim	-9.41314
▁40	-9.41323
▁towar	-9.41348
▁granic	-9.41369
▁Nr	-9.41431
▁przycisk	-9.41462
▁nam	-9.41482
▁chor	-9.41599
▁podkreślić	-9.41624
▁para	-9.41697
zw	-9.41947
▁obiekt	-9.42025
▁szczególności	-9.42046
▁Gdy	-9.42112
▁pra	-9.42138
onej	-9.4223
tyczny	-9.4223
▁uzyska	-9.42329
▁resort	-9.42368
▁wprowadzenie	-9.42385
▁stopniu	-9.42416
▁zabranie	-9.4248
▁dyskusji	-9.42481
▁podnieść	-9.42585
onym	-9.42688
icznej	-9.42717
lep	-9.42741
▁ważne	-9.42751
▁lo	-9.42808
▁choć	-9.42843
kul	-9.42892
ające	-9.42897
▁Bra	-9.42997
kowski	-9.43097
środ	-9.43121
▁dys	-9.43187
▁zabezpiecz	-9.43272
▁rozpoczął	-9.43304
▁model	-9.43365
ens	-9.43405
▁możemy	-9.43464
▁swój	-9.43512
▁minut	-9.4362
▁upraw	-9.43636
▁taka	-9.4364
ety	-9.43723
▁zespół	-9.43738
▁naszych	-9.43792
▁Dzięki	-9.43811
▁musiał	-9.4383
▁per	-9.43841
▁nauczyciel	-9.43855
▁Bardzo	-9.4392
▁istnieje	-9.43956
tworzon	-9.43981
stra	-9.44131
▁n	-9.44142
owanym	-9.44264
▁większe	-9.44304
lot	-9.44325
ęd	-9.4452
▁wielo	-9.44541
▁gospodarczej	-9.44557
▁rozporządzenia	-9.4465
▁rodzaj	-9.44679
ńskich	-9.44693
▁Or	-9.44835
▁polskim	-9.4488
▁większość	-9.44907
▁Hi	-9.44936
▁potrzeby	-9.44988
▁ofert	-9.45049
▁Jako	-9.45219
▁2016	-9.45266
zone	-9.45341
▁kolei	-9.45409
▁kat	-9.45417
▁przecież	-9.45425
▁układ	-9.45473
▁użytk	-9.45513
cząc	-9.45568
▁mecz	-9.45578
▁uzupełni	-9.45607
▁nadal	-9.45717
bat	-9.45725
pal	-9.45728
▁uczelni	-9.45757
▁zarząd	-9.45854
▁wszyscy	-9.46053
▁dodatkowe	-9.46169
▁typ	-9.46221
▁dy	-9.46252
▁gener	-9.46328
▁funkcjonowania	-9.46424
▁przyjęciem	-9.46493
▁bezpośredni	-9.46507
▁zostaną	-9.46574
ren	-9.46609
▁Ty	-9.46774
▁bieg	-9.4682
▁efekt	-9.46829
▁mógł	-9.469
▁or	-9.47002
▁czynności	-9.47013
trzy	-9.47045
▁Mari	-9.47052
▁razie	-9.47068
▁pozna	-9.47144
cząt	-9.47145
▁korzysta	-9.47237
▁czar	-9.47252
▁broni	-9.47255
ownik	-9.47316
brać	-9.47401
▁kolejny	-9.4745
▁sędzi	-9.47478
▁zdrowotnej	-9.47508
▁kor	-9.47557
▁fo	-9.47558
niczych	-9.47578
▁całości	-9.47595
▁realizację	-9.47603
pol	-9.4761
twa	-9.47647
9	-9.47657
▁Mu	-9.47675
▁miało	-9.47695
▁tekst	-9.4771
▁dobre	-9.47773
▁terytorialnego	-9.47853
bar	-9.47855
▁zatrudnienia	-9.47899
▁wykorzysta	-9.47936
▁Dział	-9.47947
▁środowisk	-9.47948
▁celem	-9.47986
ns	-9.48042
lat	-9.48053
tom	-9.48075
ger	-9.481
▁Może	-9.48163
▁prowadzenia	-9.48307
▁finansowe	-9.48372
▁akt	-9.4838
wraca	-9.48398
▁premier	-9.48457
równa	-9.48473
ód	-9.48569
▁Ten	-9.48598
▁rozwój	-9.48633
plik	-9.48637
▁mocy	-9.48662
▁skarb	-9.48675
▁różne	-9.48699
▁opłat	-9.48729
▁Pana	-9.48773
▁każdym	-9.48853
ńska	-9.48917
▁60	-9.48935
▁ilości	-9.49035
▁Jana	-9.4908
▁dziecka	-9.49102
▁finans	-9.4918
owni	-9.49187
▁przewiduje	-9.49224
▁central	-9.49241
różni	-9.49249
▁wody	-9.4926
▁Ser	-9.49315
iu	-9.49357
▁Chciałbym	-9.49376
▁studia	-9.49377
▁zostać	-9.49379
men	-9.49397
▁socjal	-9.4942
▁badań	-9.49421
▁energii	-9.4953
ans	-9.49584
owało	-9.49591
▁kart	-9.49619
zja	-9.49634
▁By	-9.49653
▁kontynu	-9.49684
roz	-9.49708
▁przedstawiciel	-9.49741
▁łącz	-9.49823
▁sprawa	-9.49902
nale	-9.49927
▁stał	-9.49983
▁przyjęcie	-9.5
szczę	-9.50031
ałem	-9.50066
▁zechce	-9.5016
▁Klub	-9.502
▁eksp	-9.50293
▁Fran	-9.50325
fikacj	-9.50337
▁wiem	-9.50357
▁należą	-9.5038
▁Dzie	-9.50405
▁czyn	-9.50441
star	-9.50504
▁kontrakt	-9.50538
▁dowod	-9.50653
▁euro	-9.50672
▁ustawą	-9.50842
padł	-9.50845
zm	-9.50903
▁mieli	-9.5095
▁zdaniem	-9.51089
▁komu	-9.51123
łowie	-9.5114
chodząc	-9.51145
centr	-9.51181
▁popular	-9.51238
stron	-9.5124
▁informuję	-9.51342
▁silnik	-9.51352
dzial	-9.51383
▁bram	-9.51393
▁Piotr	-9.51403
▁udziela	-9.51405
▁Ki	-9.51413
▁He	-9.51476
ywać	-9.51517
▁nadzieję	-9.51518
▁kwoty	-9.51613
lny	-9.51634
▁kolejnych	-9.51706
▁późn	-9.51727
▁lu	-9.5174
ury	-9.5174
▁poselski	-9.51833
▁ostatni	-9.51858
▁król	-9.5186
▁właściwy	-9.51878
ale	-9.51942
▁Tu	-9.51972
▁mało	-9.51983
▁Przez	-9.52006
ery	-9.52201
wolni	-9.52267
ik	-9.52288
▁rat	-9.52293
▁ruch	-9.52372
▁artykuł	-9.52379
▁akcji	-9.52392
szej	-9.52425
bel	-9.52449
tnie	-9.52472
obserw	-9.52517
stąpił	-9.52522
▁kl	-9.5254
chow	-9.5254
▁pu	-9.52572
▁metod	-9.52598
tyki	-9.52615
▁jaką	-9.52631
for	-9.5269
he	-9.52727
▁gaz	-9.52743
tycznych	-9.52777
▁równo	-9.5283
▁kultury	-9.52856
▁taką	-9.52863
▁pomocą	-9.52873
▁całego	-9.52976
▁skierowan	-9.52981
5%	-9.53015
owań	-9.53084
▁Hu	-9.53153
▁moc	-9.53217
▁polskie	-9.53217
ani	-9.53236
ice	-9.53286
▁każdego	-9.53366
▁ga	-9.53373
pod	-9.53415
▁Andrzej	-9.53534
▁mężczyzn	-9.53653
dał	-9.53736
acyjne	-9.53754
szego	-9.53782
▁rady	-9.53911
nica	-9.53938
kowej	-9.53954
tyczne	-9.53983
▁podziel	-9.54007
▁dalej	-9.54019
▁Dr	-9.5405
owicz	-9.54052
▁praktyk	-9.54097
ckim	-9.54119
▁fi	-9.5416
czes	-9.54206
▁dość	-9.54232
▁procedur	-9.54233
▁dane	-9.54253
▁funkcję	-9.54293
ory	-9.54355
▁numer	-9.54378
▁sobą	-9.54423
ój	-9.54425
▁Klubu	-9.54504
▁al	-9.54539
szcza	-9.54541
▁pośle	-9.54589
▁warto	-9.54616
▁mogli	-9.54632
▁nacisnąć	-9.5466
rys	-9.54669
▁wystąpił	-9.54671
dom	-9.54681
opol	-9.5475
żona	-9.549
▁prom	-9.54915
łożone	-9.54917
owości	-9.5497
śród	-9.54975
▁anty	-9.5498
tion	-9.55055
▁bezpośrednio	-9.55058
▁dyrektor	-9.55079
▁wypad	-9.55085
cyjne	-9.55181
cami	-9.55194
ących	-9.55218
krotnie	-9.55218
▁partner	-9.55229
rób	-9.55281
▁pr	-9.55368
▁Narodowego	-9.55392
▁pozbawi	-9.55392
▁kurs	-9.55414
▁oceny	-9.55422
▁dziennego	-9.55433
01	-9.55492
▁dalsze	-9.55499
ublik	-9.55552
▁własności	-9.55597
▁staw	-9.55726
▁szkole	-9.55849
▁zada	-9.5587
cej	-9.55894
▁rejestr	-9.55906
icznego	-9.55968
▁nowej	-9.55977
mienia	-9.55979
▁samolot	-9.55989
▁obszarze	-9.56039
▁społecznych	-9.56066
▁nowy	-9.56106
▁przyjął	-9.56109
▁pat	-9.56199
▁Tur	-9.56217
▁zjawisk	-9.56253
25	-9.56321
▁muszą	-9.5635
łości	-9.56371
▁podróż	-9.56374
▁Otóż	-9.56376
▁pieniądze	-9.56378
▁start	-9.564
▁walk	-9.56557
▁spotkania	-9.56586
▁kategorii	-9.56664
scy	-9.56717
▁wyjaśni	-9.5672
▁prezes	-9.56742
▁port	-9.56769
▁Ne	-9.56771
▁warunkach	-9.5684
zachodni	-9.56868
pt	-9.56876
▁meczu	-9.56897
dat	-9.56909
▁uda	-9.56945
▁momencie	-9.56954
▁końcu	-9.56954
▁Zakład	-9.57029
▁rolę	-9.57087
lnym	-9.57089
▁Finansów	-9.57161
▁osad	-9.57202
▁Dy	-9.5721
arz	-9.57234
▁komputer	-9.57329
▁osoba	-9.57548
▁gdyby	-9.57661
▁decyzję	-9.57744
ser	-9.57845
▁byłoby	-9.57884
owaną	-9.57888
▁UE	-9.57896
dził	-9.57951
▁ważny	-9.58031
▁obowiązek	-9.58079
▁tworzy	-9.58194
▁Kiedy	-9.58214
▁sprawach	-9.58338
byśmy	-9.58531
len	-9.586
▁samego	-9.58607
▁wymieni	-9.58647
▁drugie	-9.58678
▁zakończył	-9.5871
▁drugi	-9.58807
rocz	-9.58904
▁Policji	-9.58923
▁oper	-9.5893
▁ciekaw	-9.58965
55	-9.5899
▁ska	-9.59001
▁Ge	-9.59043
▁razy	-9.59097
▁centrum	-9.59175
▁rodzi	-9.59178
▁pozostał	-9.59233
▁Euro	-9.59277
pul	-9.59283
▁kan	-9.5936
▁ludzie	-9.59388
gór	-9.59408
naj	-9.59422
tak	-9.59451
▁atak	-9.59466
▁trakt	-9.59473
eria	-9.59572
▁Stwierdzam	-9.59599
ień	-9.59722
tw	-9.59726
lem	-9.59726
niejszych	-9.59796
▁północ	-9.59797
▁negatyw	-9.59812
▁miasto	-9.59889
▁nazwa	-9.59963
▁hi	-9.59976
trze	-9.59988
kor	-9.60019
ariusz	-9.60025
pas	-9.60052
esz	-9.6013
tworzy	-9.6013
▁mogły	-9.60154
▁przekona	-9.60213
pisał	-9.60314
▁człowieka	-9.60537
sad	-9.60694
▁sło	-9.60787
▁produktów	-9.6083
▁zrobić	-9.60907
▁dróg	-9.61056
łożenie	-9.61127
▁pokaz	-9.61159
▁podmiotów	-9.61166
owaniem	-9.61178
▁poprawek	-9.61187
▁mal	-9.61202
▁wystaw	-9.61226
bę	-9.61254
żyt	-9.61308
regul	-9.61346
▁maszyn	-9.61346
▁punktów	-9.6137
▁nigdy	-9.61402
▁uprzejmie	-9.61526
▁Polaków	-9.61532
gni	-9.61558
tury	-9.6165
▁umów	-9.61658
▁członkiem	-9.61706
plan	-9.61727
▁wydatków	-9.6175
▁niestety	-9.61751
▁zwraca	-9.61847
▁telefon	-9.61883
▁braku	-9.61889
▁skup	-9.61955
▁ca	-9.61958
▁rzeczywiście	-9.61967
mistrz	-9.62031
▁zamierza	-9.62034
▁he	-9.62056
rzę	-9.62058
▁zysk	-9.62072
▁Skarbu	-9.62093
▁zmiana	-9.62138
▁pracował	-9.62191
▁Nad	-9.62222
▁Vi	-9.62224
▁Oczywiście	-9.62228
▁kwestia	-9.62228
kwi	-9.62306
▁wygląda	-9.62348
▁imprez	-9.62492
bur	-9.62513
▁list	-9.62539
▁Wal	-9.62543
▁stref	-9.6258
nosząc	-9.62623
nięcie	-9.62639
▁0	-9.62659
▁treści	-9.62666
atu	-9.62678
▁80	-9.62682
▁instrument	-9.6271
▁szcze	-9.62733
cenia	-9.62792
prowadzony	-9.62888
▁zakres	-9.6289
▁hu	-9.62916
▁wsparcia	-9.6293
▁mniejszości	-9.6293
yć	-9.62959
▁Sprawiedliwości	-9.62974
▁amerykański	-9.62974
-1	-9.62989
▁wykorzystywan	-9.63033
ciel	-9.6309
▁reprezentacji	-9.6315
▁pe	-9.63159
▁róż	-9.63197
▁krótki	-9.63238
lony	-9.63249
▁poprawkę	-9.63283
ult	-9.63295
▁remont	-9.63436
▁Op	-9.63441
▁War	-9.63479
rzecz	-9.63588
▁Program	-9.63594
▁Gdańsk	-9.63639
▁narodowej	-9.63643
▁sejm	-9.63666
▁głosów	-9.6369
▁trans	-9.63707
▁h	-9.63769
▁rozwija	-9.63856
pisane	-9.63862
arzy	-9.63869
▁krajów	-9.63881
powiada	-9.63895
icznym	-9.63927
▁Pe	-9.63938
▁Następnie	-9.63948
▁problemów	-9.63955
09	-9.64009
▁znaczenie	-9.64032
▁pomysł	-9.64081
▁zwrócić	-9.64086
▁szuka	-9.64094
ura	-9.64215
bywa	-9.64249
▁odpowiednie	-9.64276
05	-9.64283
żyć	-9.64355
▁1.	-9.64358
▁mon	-9.64405
▁ostatnie	-9.64428
▁względem	-9.64437
łup	-9.64444
▁pochodzi	-9.64479
▁parlament	-9.64482
▁niepo	-9.64488
fr	-9.6454
▁nowelizacji	-9.64615
▁trwał	-9.64636
▁kapitał	-9.6466
▁zapewnia	-9.64795
▁urząd	-9.64803
▁Med	-9.64845
▁klas	-9.64867
▁paliw	-9.64871
▁pojawił	-9.64977
▁materiał	-9.65016
oż	-9.65032
▁szans	-9.65104
dzą	-9.65109
▁jakich	-9.65126
▁Puchar	-9.6513
▁zmienia	-9.65144
▁czeka	-9.65189
▁kredyt	-9.65191
▁sprawę	-9.65202
▁Sąd	-9.65226
pat	-9.65233
wor	-9.65237
kowy	-9.65325
▁połowie	-9.65336
▁Kor	-9.65337
▁skór	-9.65354
▁fizyczn	-9.65368
stą	-9.65399
▁Minister	-9.65433
▁podpis	-9.65448
▁powyższe	-9.65526
▁długi	-9.65537
▁wysoki	-9.65615
▁umożliwi	-9.6567
▁pozycji	-9.65698
▁Car	-9.65713
▁powiatu	-9.65798
▁pierwszego	-9.65848
wiesz	-9.65855
wana	-9.65863
▁du	-9.65909
usza	-9.65935
06	-9.66018
▁dostaw	-9.66097
eks	-9.6619
prowadza	-9.66211
ckie	-9.66213
▁ustawę	-9.66242
bin	-9.66301
prowadzi	-9.6636
▁podlega	-9.66374
▁lot	-9.66378
▁Bud	-9.66497
lność	-9.66547
▁egzamin	-9.66562
▁polski	-9.66731
▁XIX	-9.6674
▁an	-9.6674
▁daje	-9.66758
▁Sprawiedliwość	-9.66786
▁kry	-9.6681
▁Centrum	-9.66832
▁Nauk	-9.66832
▁lud	-9.66843
▁usługi	-9.66877
przy	-9.66906
▁budynku	-9.66923
▁potrafi	-9.66969
▁barw	-9.66979
gan	-9.67005
stru	-9.67014
zan	-9.67069
▁nią	-9.67089
▁Niestety	-9.67107
ycznych	-9.67119
▁prof	-9.67176
▁wiadomo	-9.67191
▁nasze	-9.67246
▁książ	-9.67279
▁rent	-9.67287
lam	-9.67319
▁medyczn	-9.67337
51	-9.6734
tri	-9.67436
▁uwzględni	-9.67496
▁udało	-9.67568
▁sens	-9.6775
▁Stud	-9.67797
siąg	-9.67821
bil	-9.67881
rup	-9.67902
▁ogóle	-9.67938
▁gromad	-9.67979
▁Pierwszy	-9.67982
▁prezesa	-9.67989
▁poziomu	-9.68
▁biskup	-9.68028
▁pojazd	-9.68044
oz	-9.68102
▁ceny	-9.68118
▁finansowania	-9.6817
▁występuje	-9.6817
▁omawia	-9.68204
wę	-9.68247
▁Inform	-9.68251
tyn	-9.68254
▁pieniędzy	-9.68306
▁szef	-9.6832
wierz	-9.68338
siedl	-9.68385
▁cech	-9.68394
ft	-9.68472
ph	-9.68568
gre	-9.68569
bl	-9.68577
▁Nor	-9.68619
▁nastąpi	-9.68624
ap	-9.6871
▁publicznego	-9.68729
▁ukończył	-9.68771
▁określonych	-9.68836
▁problemu	-9.68847
▁jedna	-9.68873
▁Cho	-9.68926
▁zarządza	-9.68928
▁Najwyższ	-9.68932
▁pory	-9.68957
emu	-9.69024
▁różnic	-9.6908
▁czyta	-9.69087
▁ubezpieczeni	-9.69192
▁(20	-9.69224
▁innego	-9.69232
▁Narodowej	-9.69239
▁Praw	-9.69338
▁będę	-9.6938
▁stos	-9.69415
istów	-9.69435
▁jestem	-9.69459
nce	-9.69501
ham	-9.69547
▁poprawi	-9.69563
publiczn	-9.69593
czeniu	-9.69618
osta	-9.69623
dzenie	-9.69623
▁Myślę	-9.69729
▁spełni	-9.69775
24	-9.69821
▁uczniów	-9.69851
▁mieście	-9.699
▁problemy	-9.69904
▁ks	-9.69931
▁Kraj	-9.69956
dzon	-9.69958
▁ryb	-9.69974
▁przebywa	-9.70001
▁Warto	-9.70037
▁argument	-9.70038
▁obowiązku	-9.70038
▁wprowadzenia	-9.70038
edy	-9.70048
▁wzrostu	-9.70051
▁wypowiedzi	-9.70147
▁drzew	-9.7016
04	-9.70179
owca	-9.70189
▁odniesieniu	-9.70228
▁Senat	-9.70235
▁krajach	-9.70279
60	-9.70318
liwe	-9.70321
07	-9.70349
cin	-9.70409
▁wyżej	-9.70429
ywanie	-9.70438
40	-9.70569
wą	-9.70614
▁charakterze	-9.70644
▁przepis	-9.70654
łość	-9.70686
wiz	-9.70692
61	-9.70702
▁wykonywan	-9.70779
▁wnosi	-9.70807
rus	-9.70843
cym	-9.70847
▁Mor	-9.70848
rzuca	-9.70866
▁90	-9.70896
▁droga	-9.70899
▁spełnia	-9.70914
▁nieza	-9.7092
noszą	-9.70925
▁konieczności	-9.70942
robi	-9.70961
▁Kr	-9.71012
▁dlaczego	-9.7108
▁leg	-9.71094
nictwo	-9.71128
▁Pol	-9.71132
▁mowa	-9.71136
▁chroni	-9.71143
▁wyższe	-9.71223
▁zas	-9.71314
▁żołnierzy	-9.71343
▁czasem	-9.71356
▁polityk	-9.71382
▁zmieni	-9.71393
▁kup	-9.7147
dło	-9.71544
▁trochę	-9.71612
▁okresu	-9.71635
▁staro	-9.71638
▁towarów	-9.71683
▁for	-9.71732
▁moim	-9.71735
wanych	-9.71828
▁1996	-9.71845
tór	-9.71873
wcze	-9.71927
przed	-9.71944
wiedzi	-9.71959
nione	-9.71972
63	-9.72038
08	-9.72069
ora	-9.72117
▁głosowania	-9.72134
grod	-9.72158
▁Rząd	-9.72192
▁ciąg	-9.72196
▁sposob	-9.72201
▁1994	-9.72229
rol	-9.72268
▁budowę	-9.72287
▁pyta	-9.7229
▁przyczyni	-9.72317
rosyjski	-9.72337
▁album	-9.7238
mon	-9.72402
▁ofiar	-9.72442
▁prezydenta	-9.72452
burg	-9.72454
▁Europie	-9.72464
ela	-9.7249
▁kre	-9.72494
▁programów	-9.72549
klar	-9.72554
▁ustala	-9.72556
▁pociąg	-9.72693
zon	-9.72722
ord	-9.72882
kol	-9.7296
akcept	-9.7306
fund	-9.73086
▁istotny	-9.73109
▁bio	-9.73134
▁wypadku	-9.73144
nios	-9.73225
62	-9.73248
▁cztery	-9.73254
▁płyn	-9.73255
▁mod	-9.73285
sch	-9.733
ług	-9.7331
dra	-9.73351
▁USA	-9.73401
▁media	-9.73414
zyska	-9.73469
▁chcą	-9.7349
58	-9.73506
▁procesu	-9.73588
▁lepiej	-9.73596
nisz	-9.73623
▁chcę	-9.73658
▁Parlamentarnego	-9.73693
polski	-9.73734
▁not	-9.73751
▁Niemiec	-9.73752
▁postaw	-9.73759
▁odpowiedź	-9.73792
▁Demokratycznej	-9.73816
▁forma	-9.73934
oby	-9.73983
▁wykonywania	-9.74032
▁Dlaczego	-9.74045
▁obciąż	-9.7406
nne	-9.74226
▁reklam	-9.74235
prowadzono	-9.74252
▁ps	-9.7427
▁małe	-9.74298
▁kwotę	-9.743
▁Mie	-9.743
gl	-9.74306
słow	-9.74367
80	-9.74427
nikiem	-9.74449
▁reform	-9.74452
ple	-9.74488
▁Pl	-9.74496
▁zapyta	-9.74541
ówki	-9.74568
▁Ministra	-9.74629
▁El	-9.74647
▁wojnie	-9.74652
▁należał	-9.7469
▁blok	-9.74708
▁regulacji	-9.74709
▁organów	-9.74761
▁odbył	-9.74771
lone	-9.74798
▁przyszłości	-9.74827
▁udziału	-9.74841
▁000	-9.74879
▁sytuację	-9.74926
▁ds	-9.74927
▁scen	-9.74927
▁słowa	-9.74937
nięcia	-9.74978
▁gen	-9.75092
ione	-9.75119
▁przestępstw	-9.75132
▁Gre	-9.75158
ly	-9.75159
▁mogła	-9.75196
▁komór	-9.75252
chodzą	-9.75259
▁mechanizm	-9.75273
▁zachowa	-9.75336
▁wartość	-9.75371
▁trud	-9.75378
pełnosprawnych	-9.75423
▁zgłasza	-9.75423
niż	-9.75451
▁zajął	-9.75481
▁zabaw	-9.75524
▁łącznie	-9.75527
▁nikt	-9.75544
▁panu	-9.75597
▁Rozwoju	-9.75622
cisk	-9.75629
▁myśli	-9.75679
rzą	-9.75724
czyni	-9.7573
57	-9.75769
▁70	-9.75849
▁wniosków	-9.75876
▁gru	-9.75877
▁Art	-9.75908
▁uczestnicz	-9.75937
▁Francji	-9.75972
▁długo	-9.76005
iczny	-9.76006
▁powyżej	-9.76023
53	-9.76117
▁pal	-9.7624
▁szeroko	-9.76274
wój	-9.76306
▁ju	-9.7635
▁cu	-9.76373
▁oto	-9.76373
▁zmarł	-9.76423
▁koncert	-9.76429
▁Jej	-9.76435
owska	-9.76437
▁okazji	-9.76479
▁przeprowadza	-9.76495
▁władzy	-9.76532
spir	-9.76542
02	-9.76587
▁druku	-9.76591
▁pozosta	-9.76649
▁transportu	-9.76655
▁konsul	-9.76701
real	-9.7672
▁nauki	-9.76747
59	-9.76755
▁sprawiedliwości	-9.76777
▁projektem	-9.76798
niósł	-9.76823
wan	-9.76835
cach	-9.76851
▁powoduje	-9.76862
izowany	-9.76865
pros	-9.76879
▁ne	-9.76924
▁wypełni	-9.76935
▁godz	-9.76979
▁chłop	-9.76984
gna	-9.76997
gry	-9.77034
▁Gu	-9.7707
▁Głos	-9.77094
▁stronę	-9.77105
▁ogranicza	-9.77132
▁rolnictwa	-9.77132
erii	-9.77136
▁przystąpi	-9.7721
▁Gmin	-9.77274
żył	-9.77293
▁prezydent	-9.773
▁kompleks	-9.77386
rost	-9.77408
▁baz	-9.775
▁kości	-9.7762
▁Izby	-9.77694
▁wybrany	-9.77734
▁budowa	-9.77757
cyjnych	-9.77779
ewskiego	-9.77782
▁natural	-9.77827
▁legislacyjn	-9.77844
cyjną	-9.77902
dal	-9.77985
▁podatnik	-9.77991
np	-9.7801
▁walki	-9.7802
cić	-9.78114
wit	-9.78187
lub	-9.78192
row	-9.78228
▁Ostatni	-9.78264
▁0,	-9.78265
▁zagra	-9.78338
pisany	-9.78365
▁ułatwi	-9.7851
▁Mistrzostw	-9.78511
ady	-9.78623
wiadcz	-9.78727
18	-9.78754
▁Adam	-9.78773
▁Her	-9.78786
▁Cy	-9.78787
owskiej	-9.78818
▁istotne	-9.78871
lok	-9.78906
▁dobry	-9.78907
▁Kat	-9.78923
▁Sch	-9.78953
lności	-9.78979
▁Gi	-9.7898
czas	-9.78984
dzy	-9.7901
arski	-9.79017
dem	-9.79027
03	-9.79028
▁okolic	-9.79046
ista	-9.79086
▁Zjednoczonych	-9.7917
▁sprawozdania	-9.79336
▁języka	-9.79339
wodow	-9.79383
▁innym	-9.79447
ktyw	-9.79511
ell	-9.79517
encję	-9.79526
▁1945	-9.79588
iet	-9.7959
▁wynagrodzenia	-9.79647
▁pragnę	-9.79647
lni	-9.79718
▁Krakowie	-9.79756
▁Lewicy	-9.79804
▁element	-9.79815
▁Ry	-9.79866
▁cm	-9.79929
39	-9.7997
łoby	-9.8001
▁emerytur	-9.80031
aniem	-9.80045
▁uchwały	-9.80083
wschodni	-9.80124
35	-9.80216
▁Pierwsze	-9.80221
▁san	-9.80228
▁wysokość	-9.8024
▁transport	-9.80256
▁każdej	-9.80266
cyjny	-9.80267
▁przedsiębiorców	-9.80273
czona	-9.80294
▁zatrudni	-9.80334
▁znaleźć	-9.80378
▁wolności	-9.80384
37	-9.80434
acyjnego	-9.80476
▁tysięcy	-9.80483
▁monitor	-9.80483
▁zaczyna	-9.8056
▁posiedzeniu	-9.80587
rgi	-9.80626
▁1991	-9.80636
▁sub	-9.80683
isty	-9.80698
▁jesteśmy	-9.80748
▁finansowa	-9.8076
grze	-9.80779
żu	-9.80804
▁wyraz	-9.80843
bran	-9.80886
75	-9.80934
▁wojen	-9.80968
lna	-9.80981
▁klucz	-9.80999
nienie	-9.80999
▁zakaz	-9.8104
▁grani	-9.81049
34	-9.81055
bry	-9.8114
yzacji	-9.81161
▁profesor	-9.81166
nicze	-9.81172
ingu	-9.81186
13	-9.81229
▁200	-9.81254
▁ple	-9.81311
ble	-9.81385
38	-9.81392
▁wielkości	-9.81404
ozy	-9.81419
▁zrobi	-9.81425
skrzy	-9.8146
▁przedstawi	-9.81463
ban	-9.81562
▁grupa	-9.81571
zić	-9.81624
▁przypadkach	-9.81643
niczego	-9.81645
wyk	-9.81647
tura	-9.81647
▁Prawa	-9.81678
▁pełne	-9.81691
▁raczej	-9.81703
▁przedstawione	-9.81738
stwie	-9.81799
▁styl	-9.81812
▁funkcji	-9.81825
▁status	-9.81915
nor	-9.81942
▁plac	-9.82005
▁jakiś	-9.82014
set	-9.82061
▁Ad	-9.82114
▁uzyskania	-9.82166
▁ministrze	-9.82184
23	-9.82188
organ	-9.82215
▁sezonie	-9.82215
▁inwestor	-9.82228
▁obecnej	-9.82242
niesienie	-9.82327
▁kadencji	-9.82334
żenie	-9.82399
▁pole	-9.82411
▁jakiej	-9.82439
▁wygra	-9.82451
sob	-9.82479
▁zwierząt	-9.82495
▁ster	-9.82504
▁siedzi	-9.8256
▁Ministerstwie	-9.8262
yjne	-9.82716
istyczne	-9.82718
▁wiedzy	-9.82729
▁prowadzenie	-9.82757
▁adres	-9.82765
▁Wrocław	-9.82858
▁1992	-9.82866
▁up	-9.82879
▁nadzoru	-9.8288
▁pierwszych	-9.82885
65	-9.829
▁Kra	-9.82919
kazał	-9.82973
▁obsługi	-9.82977
▁całym	-9.82987
bier	-9.83012
▁okręt	-9.83017
▁dochodów	-9.83031
▁ścian	-9.83075
▁dokładnie	-9.83112
▁Stan	-9.83138
lenie	-9.83162
▁kryzys	-9.83195
▁wykład	-9.83224
▁wskaźnik	-9.83247
tera	-9.8325
sjon	-9.83259
budowany	-9.83263
▁wchodzi	-9.83267
▁jakieś	-9.83287
ori	-9.83298
▁Polityki	-9.83301
czego	-9.83351
▁edukacji	-9.83354
▁Ri	-9.83399
▁oni	-9.83407
▁wersji	-9.83411
druk	-9.8342
ofi	-9.83565
▁wspomni	-9.83572
▁długości	-9.83669
▁przedstawicieli	-9.83725
▁Związku	-9.8375
▁określ	-9.83759
▁straż	-9.83778
▁przesłan	-9.83814
encji	-9.83836
acyjnej	-9.83875
▁infrastruktury	-9.83895
▁spowodował	-9.83895
żony	-9.83923
▁dobra	-9.83928
ęta	-9.83959
ation	-9.84002
▁Kom	-9.84051
▁mieszkań	-9.84111
▁płat	-9.84114
Ś	-9.84172
mont	-9.84206
ograf	-9.84219
▁trybie	-9.84219
▁prawem	-9.84384
▁nieco	-9.84405
OW	-9.84426
tyl	-9.84441
rem	-9.84522
▁całą	-9.84528
▁regulamin	-9.8455
ewicz	-9.84574
pocz	-9.8464
▁konkur	-9.84661
kop	-9.84718
▁stosowania	-9.84731
▁widzenia	-9.84787
▁wyścig	-9.84813
▁znajdował	-9.84828
70	-9.84844
▁działanie	-9.84874
▁Warszaw	-9.8491
fon	-9.84937
▁zakończeniu	-9.84986
▁konieczność	-9.84986
▁odbior	-9.84989
▁wybuch	-9.84991
▁Ter	-9.85008
har	-9.85019
▁oferty	-9.85023
ót	-9.85121
jącymi	-9.85172
ńskie	-9.85176
▁uruchomi	-9.85261
▁zupełnie	-9.85261
stal	-9.85292
ju	-9.85311
▁fil	-9.85392
▁trzecie	-9.85393
▁kierunk	-9.85415
moc	-9.8543
▁widzi	-9.85434
lnie	-9.85456
▁Gospodarki	-9.85482
▁posłowie	-9.85572
▁obaw	-9.85591
▁obowiązujące	-9.85666
▁kościoła	-9.85703
▁Wysokiej	-9.85717
▁history	-9.85721
AR	-9.85726
itar	-9.85733
ola	-9.85797
▁perspektyw	-9.85812
▁nimi	-9.85885
dent	-9.85898
▁Państw	-9.85976
▁nazywa	-9.85979
PR	-9.86001
pel	-9.8601
▁napraw	-9.86014
▁społeczeństwa	-9.86047
▁gwarant	-9.86089
▁ulic	-9.86117
▁Ros	-9.86141
▁Tym	-9.8617
▁podjął	-9.86179
▁samej	-9.86184
▁najczęściej	-9.862
▁rzek	-9.86245
▁pytań	-9.86273
▁Rze	-9.86275
▁liczne	-9.86316
niemiecki	-9.86322
▁przemysł	-9.86342
▁skutki	-9.86369
▁stały	-9.86439
▁przepisami	-9.86448
▁wymiar	-9.86557
ksy	-9.86589
▁wyrok	-9.86632
▁cywil	-9.86636
▁rozpatrzenia	-9.86701
▁Wil	-9.86722
27	-9.86738
▁Mimo	-9.8676
▁obejmują	-9.8676
▁1990	-9.86762
▁liczy	-9.86922
▁obejmuje	-9.86924
nowi	-9.86946
▁występował	-9.86957
48	-9.86991
▁zajmując	-9.86996
▁Wszystkie	-9.87092
▁wręcz	-9.87107
▁Biał	-9.87126
▁Woj	-9.87163
▁1939	-9.87215
▁przedstawić	-9.87313
▁wielki	-9.87419
NA	-9.87457
▁dostosowan	-9.87564
▁mogę	-9.87639
▁oparciu	-9.87654
▁Uniwersytetu	-9.87702
▁mistrzostwach	-9.87739
▁pojawia	-9.87761
▁rolników	-9.87827
óz	-9.87828
▁Już	-9.87868
▁metrów	-9.87951
▁rozp	-9.87965
29	-9.87994
▁1995	-9.87998
sti	-9.88007
▁strateg	-9.88007
łożył	-9.8811
▁przedmiotem	-9.88131
▁likwidacji	-9.88162
▁kole	-9.88168
rog	-9.88211
▁młodzieży	-9.88263
kowego	-9.88265
nienia	-9.88298
izacji	-9.88306
▁2.	-9.88353
▁2017	-9.88436
▁dysku	-9.8845
▁1993	-9.88495
tować	-9.88503
▁serwis	-9.88518
▁określony	-9.8855
▁zakładów	-9.88554
32	-9.88557
▁Os	-9.88598
▁sekretarz	-9.88616
enci	-9.88673
▁zwiększenie	-9.88675
▁IV	-9.88689
europejski	-9.88778
▁wyraźnie	-9.88789
▁Mał	-9.88834
▁granicy	-9.88837
▁blisko	-9.88845
▁uro	-9.88861
▁ład	-9.88888
▁nauczycieli	-9.88888
▁drugim	-9.88905
▁wyboru	-9.88951
▁wycofa	-9.88958
kiewicz	-9.88984
▁firma	-9.89109
yczne	-9.89181
▁rozwi	-9.89264
ary	-9.89347
▁lit	-9.89388
▁wsparcie	-9.89415
▁przyjęty	-9.8943
99	-9.89443
▁kol	-9.89448
▁etap	-9.89482
▁wykonania	-9.89484
▁piąt	-9.89507
ycznym	-9.89513
▁Sport	-9.8953
▁Można	-9.89589
▁kadr	-9.89629
▁szczególny	-9.89702
gą	-9.89702
▁aktu	-9.89735
▁technik	-9.89754
▁zagranicznych	-9.8976
▁tor	-9.89799
▁turyst	-9.898
cyjna	-9.89826
▁osobom	-9.89837
▁formy	-9.89911
▁ludności	-9.89925
gromadz	-9.89986
niesiony	-9.89991
▁ministerstwo	-9.90002
cznik	-9.90062
▁trudno	-9.90088
▁rejon	-9.9009
▁terminie	-9.90095
▁test	-9.90121
tował	-9.90165
▁ocenia	-9.9025
iczną	-9.90257
▁stopni	-9.9029
44	-9.90335
▁pochodzą	-9.90394
▁Izbie	-9.90395
▁podobnie	-9.90397
▁premiera	-9.904
▁więzi	-9.90416
▁całkowicie	-9.90452
▁zadanie	-9.90454
▁powiecie	-9.90463
▁urzędu	-9.90468
uchy	-9.90485
▁przebieg	-9.90561
▁efekty	-9.90574
mal	-9.90619
▁fundusz	-9.90679
▁pozostawi	-9.90681
nięty	-9.90699
▁Wielki	-9.90717
niczej	-9.90761
▁oczy	-9.90858
błęd	-9.90863
SP	-9.90968
▁trafi	-9.91003
▁komisja	-9.91033
26	-9.91037
▁celów	-9.91067
dpowiedzialności	-9.91082
cent	-9.91086
▁VAT	-9.91107
nęła	-9.91174
szczenia	-9.91205
▁dziedzinie	-9.91222
▁cykl	-9.91275
▁Akademii	-9.91286
rom	-9.91321
▁dniem	-9.91337
▁dotyczący	-9.91378
gląd	-9.91403
▁niezbędne	-9.91442
▁doszło	-9.91584
▁pobiera	-9.91593
▁wysp	-9.91617
31	-9.91637
▁sali	-9.91692
▁okaz	-9.91785
śle	-9.91814
▁papier	-9.91819
dziesiąt	-9.91834
64	-9.91853
nością	-9.91928
▁przetarg	-9.9198
▁powyższym	-9.92087
▁mówiąc	-9.9209
▁prawne	-9.92102
▁cele	-9.92108
▁krok	-9.92119
▁czynnik	-9.92152
łożyć	-9.92165
▁Narodowy	-9.92168
▁Platforma	-9.92205
tycznie	-9.92213
▁gmina	-9.92277
▁odrzucenie	-9.92283
liwy	-9.92342
km	-9.92358
▁sądu	-9.92359
▁szy	-9.92363
▁zabieg	-9.9244
lenia	-9.92586
top	-9.92657
▁itp	-9.92704
▁tymi	-9.92704
ującego	-9.92714
czno	-9.92717
▁Tra	-9.9275
▁bar	-9.92777
▁rozpozna	-9.92815
antów	-9.92888
alizacji	-9.92891
▁los	-9.92895
▁tłumacz	-9.92919
tycznej	-9.92981
▁analizy	-9.93011
▁turnieju	-9.93073
▁My	-9.93081
▁Kan	-9.93152
▁druk	-9.93256
▁wieś	-9.93281
▁występują	-9.93291
▁czterech	-9.93331
▁protest	-9.9335
▁znany	-9.93373
eta	-9.93386
▁popiera	-9.93407
owiec	-9.93423
▁biznes	-9.93451
▁dziecko	-9.93466
▁parafii	-9.9351
▁ilość	-9.93522
ica	-9.93567
▁narzędzi	-9.93576
ich	-9.93586
▁duch	-9.93587
iński	-9.93589
▁ciała	-9.93609
▁człowiek	-9.93637
▁serii	-9.93644
ząc	-9.93719
▁francuski	-9.9381
33	-9.93815
▁Urzędu	-9.93871
wen	-9.93906
▁Kry	-9.93923
▁Często	-9.93929
tyczną	-9.93979
▁niezwykle	-9.93989
▁autostrad	-9.93991
▁dokumentów	-9.93992
▁wszelkie	-9.9402
św	-9.94031
▁wystąpienia	-9.94053
▁pracownik	-9.94055
▁Sie	-9.94081
▁władze	-9.94125
pre	-9.94128
prócz	-9.94134
▁odpowiednio	-9.94154
▁zauważyć	-9.94174
▁kur	-9.94175
ps	-9.94179
ującym	-9.94194
▁Bez	-9.94246
▁partii	-9.94292
▁wpis	-9.94313
95	-9.94352
▁Ber	-9.94353
▁sprzedaż	-9.94449
▁gości	-9.94473
▁prowadził	-9.94507
AN	-9.94507
▁zapewni	-9.94507
żą	-9.94549
US	-9.94551
▁skarbu	-9.94552
▁wielkie	-9.94559
▁Ol	-9.94564
▁ulicy	-9.94573
ER	-9.94635
▁Pre	-9.94677
▁zawodowych	-9.94775
▁utrzyma	-9.94802
▁prywatyzacji	-9.9487
kową	-9.94887
RA	-9.94897
▁powstania	-9.94954
▁trener	-9.95015
rachunk	-9.95036
dor	-9.95037
▁500	-9.95086
▁zasadzie	-9.95112
19	-9.95127
rak	-9.95183
▁własnych	-9.95185
▁przedmiotowej	-9.95189
41	-9.95302
▁wyłącz	-9.95366
▁dodatkowo	-9.9544
▁Wielkiej	-9.95442
rodzin	-9.95527
biór	-9.95572
mysł	-9.95602
▁rynek	-9.95633
▁budżetowej	-9.95667
▁projekty	-9.95715
ruszy	-9.95725
▁pogląd	-9.95763
▁poprawka	-9.95778
▁województw	-9.95787
miar	-9.9579
42	-9.95831
▁ogrod	-9.9588
▁życiu	-9.95916
gin	-9.95929
▁Kodeks	-9.95945
▁uzgodni	-9.9599
▁General	-9.95994
▁obiektów	-9.96004
spól	-9.96031
▁ochronie	-9.96051
schod	-9.96083
▁niewy	-9.961
▁etapie	-9.96117
(	-9.96159
kowie	-9.96207
▁pojazdów	-9.96214
▁zarzut	-9.9627
▁drugiego	-9.96336
90	-9.9635
▁zaangażowan	-9.96357
▁Ochrony	-9.96419
▁Gro	-9.96452
▁społeczne	-9.96514
▁ram	-9.96581
▁uprawnienia	-9.96614
46	-9.96628
▁1989	-9.96658
▁skali	-9.9667
▁sur	-9.96676
▁dopuszcza	-9.96716
▁niektóre	-9.96727
56	-9.96734
49	-9.96749
▁stanowisku	-9.96945
▁prokurator	-9.96974
▁przynajmniej	-9.96974
nęło	-9.97013
wała	-9.9702
▁inny	-9.97022
▁stało	-9.97029
pan	-9.9703
▁gwiazd	-9.97097
cel	-9.97119
▁opowiada	-9.97176
▁pojawi	-9.97215
▁sezon	-9.97216
▁posiadają	-9.9728
jedn	-9.97329
▁inaczej	-9.97415
nal	-9.9742
▁liczbę	-9.97438
▁stawia	-9.97457
▁ostatnim	-9.97461
tego	-9.97479
54	-9.9753
▁decyzje	-9.97532
▁Krzyż	-9.97535
▁klient	-9.97568
▁grze	-9.97589
▁źródeł	-9.97594
▁Rada	-9.97602
óż	-9.97609
▁uprawnień	-9.97656
▁park	-9.97705
98	-9.97708
▁alkohol	-9.97718
▁eksport	-9.97725
cal	-9.9776
izowane	-9.97796
▁wnioski	-9.97898
▁di	-9.97973
▁proponowan	-9.98024
▁obowiązki	-9.9803
▁nazwę	-9.9804
▁panią	-9.98056
▁zwycięstw	-9.98093
▁najlepsze	-9.98093
▁rodziców	-9.98132
▁wiek	-9.98149
▁Uniwersytecie	-9.98155
▁niemal	-9.98158
▁obie	-9.98167
▁opini	-9.9827
▁ekonom	-9.98289
▁wyniki	-9.98314
▁spółek	-9.98343
▁założenia	-9.98345
▁reformy	-9.98374
▁działając	-9.98421
▁zestaw	-9.98462
▁wizyt	-9.98478
cką	-9.98542
▁Uni	-9.98578
▁wystarcza	-9.98594
▁obrony	-9.986
▁stopnia	-9.9861
▁dużym	-9.98628
gle	-9.98646
niczym	-9.98721
▁rozumie	-9.98735
▁Podstaw	-9.9874
▁Cel	-9.98762
▁porad	-9.98789
sion	-9.98835
niom	-9.98871
rzut	-9.98932
▁ograniczenia	-9.98972
▁opłaty	-9.98989
▁Kodeksu	-9.99018
pój	-9.99021
▁muzyk	-9.99047
zawod	-9.99077
▁nowym	-9.99157
▁znajdzie	-9.99165
▁główne	-9.99168
▁funduszu	-9.99188
▁elektron	-9.99205
▁wynik	-9.99238
dyk	-9.99249
▁wyposażon	-9.99288
▁przes	-9.99297
▁Warszawy	-9.99316
▁liczb	-9.99347
▁wskazują	-9.99359
▁służą	-9.99425
▁codzien	-9.99439
▁kwota	-9.99443
dż	-9.99498
con	-9.99505
▁ostatecznie	-9.99541
▁uchwał	-9.99544
kowo	-9.99589
ryka	-9.99641
▁zwiększa	-9.99668
▁zależności	-9.99669
▁Świata	-9.99693
▁pułk	-9.99705
▁liczyła	-9.99738
▁listy	-9.99747
▁wyborach	-9.99815
▁sądów	-9.99874
▁udostępni	-9.99922
▁defini	-9.99923
▁pacjent	-9.99967
trzymuje	-10.0001
▁realizowane	-10.0006
▁brat	-10.0007
zony	-10.0008
▁jednostka	-10.0009
▁stacji	-10.0011
izm	-10.0012
▁zadebiutował	-10.0018
▁rodzinie	-10.0021
▁najlepszy	-10.0025
▁kierownic	-10.0033
▁pokona	-10.0034
ńską	-10.0035
▁rozporządzenie	-10.0037
gh	-10.0045
lną	-10.0048
▁Lub	-10.0049
▁mm	-10.0054
ologiczne	-10.0056
▁Region	-10.0056
▁owoc	-10.006
▁pozostałych	-10.006
PS	-10.0064
yjnych	-10.0064
▁Wol	-10.0066
▁Har	-10.0068
▁wystąpi	-10.0072
▁Bank	-10.0076
acyjny	-10.0077
▁moje	-10.0078
▁nazwisk	-10.0082
▁spośród	-10.0084
▁prawdopodobnie	-10.0088
▁poprawce	-10.0089
▁Per	-10.0091
ochod	-10.0097
▁szkolenia	-10.0104
III	-10.0105
izacyj	-10.0111
▁producent	-10.0112
tyczna	-10.0117
łoży	-10.012
▁mając	-10.0129
stki	-10.0129
dząc	-10.0133
▁dużej	-10.0136
arch	-10.0137
▁symbol	-10.014
▁śmie	-10.014
▁ZSRR	-10.0146
▁ZUS	-10.0152
▁decyzja	-10.0153
▁dziw	-10.0154
▁zastosowanie	-10.0159
▁proc	-10.0161
▁kształcenia	-10.0166
tle	-10.0167
▁podstawowych	-10.0178
▁Król	-10.0182
▁cho	-10.0183
▁społeczeństw	-10.0184
▁finał	-10.0186
▁Katowic	-10.0187
▁Chodzi	-10.0188
▁zajmuje	-10.0188
▁Lit	-10.0189
▁Inter	-10.0191
jmy	-10.0192
▁PO	-10.0197
▁Ustawa	-10.0198
strzel	-10.02
▁mandat	-10.0206
znaczeni	-10.0209
śmy	-10.0209
43	-10.0209
▁oficer	-10.0218
▁Obywatelska	-10.0226
▁biegu	-10.023
▁lekarz	-10.0241
uzależni	-10.025
▁Stanisław	-10.0256
▁finansowej	-10.0259
▁elementów	-10.0262
ględ	-10.0262
arki	-10.0263
prowadzona	-10.0264
▁cmentarz	-10.027
97	-10.027
▁pełnił	-10.0273
▁Zarząd	-10.0275
SZ	-10.0276
▁obowiązków	-10.0283
▁kompetencji	-10.029
▁wyp	-10.0296
ńca	-10.0297
▁Tylko	-10.0297
trzyma	-10.0297
▁małych	-10.0299
▁chociaż	-10.0301
▁35	-10.0305
▁przekracza	-10.0309
▁mini	-10.0309
ówka	-10.0318
stwem	-10.0327
▁jezior	-10.0336
▁ubezpieczenia	-10.0341
solid	-10.0341
▁Między	-10.0342
▁Fo	-10.0346
▁głosował	-10.035
▁zasięg	-10.035
▁Kol	-10.0351
▁powie	-10.0358
85	-10.0366
▁Kultury	-10.0369
▁wnętrz	-10.0371
roni	-10.0378
▁Ste	-10.0379
▁kościół	-10.0384
▁terytorium	-10.0388
▁rolnych	-10.0389
▁dniach	-10.0389
▁idea	-10.0391
chody	-10.0393
▁Krzysztof	-10.0395
miot	-10.0398
▁Tomasz	-10.0402
▁Śląsk	-10.0403
vo	-10.0408
▁fu	-10.0411
jmuje	-10.0415
▁Spo	-10.0416
▁zasadach	-10.0416
▁zależy	-10.0417
kowym	-10.0425
▁zapewnienia	-10.0429
▁aktor	-10.043
▁Man	-10.0438
▁obecny	-10.044
▁integr	-10.0442
▁kra	-10.045
▁propozycji	-10.0455
▁właściwie	-10.0455
▁Szcz	-10.0456
cznymi	-10.0459
IE	-10.0459
▁zagospodarowani	-10.046
▁pracowni	-10.046
▁grunt	-10.0461
wietrz	-10.0463
▁walczy	-10.0467
▁bohater	-10.0468
dek	-10.0478
▁zmianę	-10.0479
▁materiałów	-10.0481
czono	-10.0487
▁księg	-10.0496
▁dzielnic	-10.0496
icznie	-10.0521
▁angielski	-10.0522
▁dużą	-10.0523
ród	-10.053
▁Michał	-10.0531
ucha	-10.0533
▁przeznaczone	-10.0535
▁robot	-10.0538
▁Cze	-10.0543
▁urządzenia	-10.0567
47	-10.0571
▁Trybunału	-10.0573
krę	-10.0588
▁szkoleni	-10.0589
▁Poza	-10.0589
▁zagrożenia	-10.0589
alności	-10.0594
wis	-10.0599
▁uwag	-10.0602
niosła	-10.0605
pożycz	-10.0608
budowano	-10.0613
▁dotacji	-10.0613
nictwie	-10.0615
68	-10.062
▁pobliżu	-10.0623
▁krwi	-10.0633
▁konsekwencji	-10.0637
▁wskazuje	-10.0637
▁dzisiejszy	-10.0643
▁kierownik	-10.0643
▁inicjatywy	-10.0645
▁wojska	-10.0647
▁Dodatkowo	-10.065
▁VI	-10.0654
pp	-10.0657
ven	-10.0657
▁okoliczności	-10.0659
▁sumie	-10.0663
zonych	-10.0664
▁przestrzeni	-10.0665
▁technolog	-10.0666
▁osiąga	-10.0669
▁Gru	-10.0679
iona	-10.0682
▁przedstawiciele	-10.069
▁And	-10.0695
▁czer	-10.0695
▁przygotowania	-10.0697
▁stu	-10.0704
▁przypomina	-10.0705
▁zmierza	-10.0709
▁podobny	-10.0711
▁inspektor	-10.0712
▁Cen	-10.0722
▁kwestie	-10.0725
▁material	-10.0725
izmu	-10.0727
▁będąc	-10.0729
wat	-10.0731
▁dodatkowych	-10.0735
▁Ludowego	-10.0742
▁krzyż	-10.0742
▁zapewnić	-10.0744
▁obrad	-10.0745
▁warszaw	-10.0753
▁zapytać	-10.0758
▁tworzenia	-10.076
▁sztuki	-10.0763
▁Kur	-10.0766
▁Społecznej	-10.0766
▁spółdzielni	-10.0766
▁urządzeń	-10.0766
▁dług	-10.0776
▁Rosji	-10.0785
▁mur	-10.0785
▁post	-10.0788
▁organy	-10.0788
mieści	-10.0794
▁awans	-10.0795
iego	-10.0799
▁pięt	-10.0804
▁pozostaje	-10.0807
kup	-10.0807
łaby	-10.0807
▁armii	-10.0815
▁prowadzący	-10.0818
▁związany	-10.0821
▁utrudni	-10.0829
▁techniczne	-10.0829
▁występując	-10.0829
▁klubów	-10.0837
▁Rzym	-10.0838
▁herb	-10.0841
▁zwykle	-10.0843
radz	-10.0845
▁Kam	-10.0847
▁sprzeciw	-10.0849
▁własne	-10.0855
▁brzmi	-10.0856
▁króla	-10.0857
▁wydatki	-10.0859
▁wyraża	-10.0863
▁lokalnych	-10.0863
▁prawnej	-10.0866
niesione	-10.0869
truk	-10.0872
▁przeszedł	-10.0873
▁siły	-10.0881
nięte	-10.0882
▁Fundusz	-10.0883
▁wokół	-10.0884
▁dziedzin	-10.0884
▁Środk	-10.0885
▁spółka	-10.0891
prawi	-10.0893
21	-10.0893
▁procedury	-10.0895
▁głównym	-10.0897
▁poprze	-10.09
▁produkt	-10.0903
72	-10.0905
52	-10.0905
▁Dzi	-10.0906
▁trybu	-10.0907
▁Rodzin	-10.0908
66	-10.0909
▁budzi	-10.0912
▁zostaje	-10.0912
▁klasztor	-10.0919
67	-10.0922
▁funduszy	-10.0924
▁zostali	-10.0924
▁zawodników	-10.093
▁obok	-10.093
▁szczegół	-10.0932
▁wolno	-10.0933
▁choroby	-10.0934
▁gospodarczych	-10.0936
▁ogląda	-10.0937
▁konflikt	-10.094
nda	-10.094
ON	-10.0943
▁wejścia	-10.0944
▁studiów	-10.0954
▁praktycznie	-10.0961
▁Ponieważ	-10.0961
▁Czer	-10.0962
▁32	-10.0964
▁dziewczyn	-10.0968
▁kamieni	-10.0972
▁kobiety	-10.0973
▁młodych	-10.0975
▁konstytu	-10.0977
▁wybiera	-10.0978
▁sektor	-10.0979
▁skon	-10.098
▁kończy	-10.0986
▁leczenia	-10.0987
▁roli	-10.0987
dają	-10.0988
88	-10.0989
▁chemi	-10.0993
▁Muzeum	-10.0996
▁raport	-10.0997
▁Stronnictwa	-10.1002
chód	-10.1004
▁wspólnot	-10.101
▁uchwale	-10.101
▁Lublin	-10.1016
▁import	-10.1018
▁podjąć	-10.1019
▁karierę	-10.1024
▁obrotu	-10.1024
tacja	-10.1037
▁dostępu	-10.1044
▁sama	-10.1044
▁Sło	-10.1046
głoś	-10.1047
76	-10.105
acyjnym	-10.1052
głow	-10.1055
▁drużyny	-10.1056
▁hotel	-10.1059
RO	-10.1062
▁limit	-10.1067
ity	-10.1067
▁wspólnie	-10.1067
▁igrzyskach	-10.1068
▁radio	-10.1077
▁Pri	-10.1081
▁sektora	-10.1085
▁wzmocni	-10.1088
▁pewnością	-10.1095
▁domów	-10.1095
▁przekrocz	-10.1096
rat	-10.1096
▁pacjentów	-10.1097
dawał	-10.1104
▁Leg	-10.1107
wiązał	-10.1109
▁zdobywa	-10.111
▁powstała	-10.1113
giel	-10.112
▁nazwy	-10.1122
▁żadnego	-10.1122
▁dużych	-10.1123
91	-10.1125
▁Polskie	-10.1126
▁Aby	-10.1128
morski	-10.1131
▁kontekście	-10.1131
czyk	-10.1133
▁sztuk	-10.1133
ującej	-10.1134
▁Karol	-10.1136
78	-10.114
▁brał	-10.1147
izacja	-10.1149
więc	-10.115
EN	-10.1152
▁olej	-10.1152
▁Mówi	-10.1156
odawca	-10.1156
▁(1	-10.1157
▁metal	-10.1159
▁skutków	-10.1159
posa	-10.1159
▁młodzież	-10.1161
▁procent	-10.1163
▁polityczne	-10.1164
▁postępowanie	-10.1165
▁wielokrotnie	-10.1167
▁podkreśla	-10.1168
ST	-10.1169
▁podmioty	-10.1169
▁złotych	-10.1181
▁Kazimierz	-10.1181
▁System	-10.1181
▁uwadze	-10.1181
▁Służb	-10.1182
▁wstrzymał	-10.1182
92	-10.1183
▁zdjęcia	-10.1188
96	-10.1199
▁właściwe	-10.1201
▁Mieszka	-10.121
pisać	-10.1211
▁powrócił	-10.1215
▁spotyka	-10.1228
▁różni	-10.1229
▁Chi	-10.123
87	-10.123
▁widać	-10.1232
▁musimy	-10.1233
ńcz	-10.1237
▁Republik	-10.1238
▁Gal	-10.1241
▁innej	-10.1242
▁wiz	-10.1243
▁jazdy	-10.1246
▁myślę	-10.1249
▁prawda	-10.1249
▁podstawy	-10.125
▁stylu	-10.1251
▁pomaga	-10.1253
86	-10.1258
▁tele	-10.126
bija	-10.1262
▁skal	-10.1266
▁gracz	-10.1266
83	-10.1269
szczenie	-10.1269
▁Tadeusz	-10.1275
▁mające	-10.1275
▁mówić	-10.1275
▁Jeszcze	-10.1276
▁konstytucji	-10.1278
▁uczestniczył	-10.128
▁doskonale	-10.1282
▁największy	-10.1283
iczna	-10.1288
▁Polskich	-10.1288
▁mieszkania	-10.1288
▁budowlane	-10.1289
▁rozgrywa	-10.1289
▁wygrał	-10.1291
sum	-10.1296
▁Okręg	-10.1296
roż	-10.1299
▁konkret	-10.13
KS	-10.1303
▁Park	-10.1303
▁fragment	-10.1303
służy	-10.131
▁porusza	-10.1311
pit	-10.1313
▁same	-10.1314
89	-10.1332
▁Dom	-10.1336
▁społecznego	-10.1349
sek	-10.135
▁odnosi	-10.1352
▁poniżej	-10.1355
▁odpadów	-10.1355
▁dobro	-10.1359
▁Central	-10.1362
▁żywności	-10.1362
▁akcyz	-10.1363
▁politycznych	-10.1365
▁Komitetu	-10.1371
▁informację	-10.1376
▁ogólno	-10.1378
trwa	-10.138
▁trój	-10.1384
▁znaczy	-10.1389
▁oświatow	-10.139
▁utrzymania	-10.1392
▁dyscyplin	-10.1398
▁ryzyk	-10.1401
▁gal	-10.1404
▁dat	-10.1411
▁itd	-10.1412
rasta	-10.1414
yjny	-10.1418
▁liter	-10.1418
▁spis	-10.1419
nice	-10.1435
▁elementy	-10.1439
boj	-10.144
wki	-10.1441
▁Bro	-10.1443
▁umiejętności	-10.1444
▁Teraz	-10.1446
▁zatrzyma	-10.1447
lor	-10.1448
▁konkurencji	-10.145
▁wypłat	-10.1457
owość	-10.1457
▁przewoz	-10.1457
▁izb	-10.1458
▁którymi	-10.1464
▁informacja	-10.1467
▁Czech	-10.1468
▁Powsta	-10.1471
▁kwalifi	-10.1472
▁praktyce	-10.1472
▁Kościoła	-10.1472
▁krajowych	-10.1473
sąd	-10.1473
▁doprowadził	-10.1474
▁funkcj	-10.1475
▁słucha	-10.1479
▁zabierze	-10.148
▁konieczne	-10.1482
▁En	-10.1486
▁przewodniczący	-10.1487
▁stała	-10.1495
▁Mat	-10.1497
łączone	-10.1497
▁państwowych	-10.1498
▁ocenie	-10.1503
▁węgla	-10.1503
▁pośredni	-10.1508
▁trudne	-10.1509
rezydent	-10.1511
gród	-10.1516
77	-10.1516
▁znaczne	-10.1519
▁znane	-10.1522
▁istnieją	-10.1527
▁priorytet	-10.1531
▁źródła	-10.1531
▁1944	-10.1532
▁skoro	-10.1534
▁inicjatyw	-10.1537
▁300	-10.1538
dawać	-10.1541
▁Nowa	-10.1541
▁Oddział	-10.1545
▁prawnego	-10.1545
▁spowodowan	-10.1546
94	-10.155
▁gatunków	-10.1553
▁sprawozdanie	-10.1553
▁zarządzania	-10.1554
▁zaszczyt	-10.1554
owaliśmy	-10.1557
liny	-10.156
▁kam	-10.1563
jednostk	-10.1564
▁sprzęt	-10.1565
▁zdecydowanie	-10.1568
▁wewnętrznych	-10.1579
▁województwie	-10.1582
▁zamiast	-10.1583
▁Rok	-10.1584
▁sposobu	-10.1584
▁kandydat	-10.1588
▁prowadzić	-10.1594
▁Takie	-10.1601
▁samochodów	-10.1606
▁Stanisława	-10.1606
▁prowadzą	-10.1614
▁nową	-10.1617
▁wykorzystania	-10.162
▁chcemy	-10.1624
typ	-10.1632
tycznego	-10.1637
▁danego	-10.1639
▁kap	-10.1641
▁Ag	-10.1641
▁mogło	-10.1645
▁potwierdza	-10.165
▁poświęcon	-10.1651
▁częścią	-10.1656
sil	-10.1657
▁większy	-10.1659
ero	-10.1662
szło	-10.1663
▁następne	-10.1665
▁stałe	-10.1667
▁pierwszą	-10.1673
zol	-10.1674
▁lepsze	-10.1676
▁świetn	-10.1678
wór	-10.1679
▁motyw	-10.1681
▁prywat	-10.1682
▁zachód	-10.1684
jścia	-10.1685
▁ponadto	-10.1685
▁właściwego	-10.1685
▁szczyt	-10.1686
▁rower	-10.1687
szcze	-10.1688
jeżdża	-10.1688
▁John	-10.1689
▁klientów	-10.1692
TA	-10.1693
▁zgodzi	-10.1695
▁żywi	-10.1696
▁Brytanii	-10.1696
▁ciężki	-10.1696
▁interpelacji	-10.1696
▁wysłucha	-10.1696
▁masz	-10.1699
stat	-10.1704
fo	-10.1705
tęż	-10.1714
▁klasyfikacji	-10.1719
▁podwyższ	-10.172
73	-10.1724
84	-10.1726
▁seks	-10.1729
aria	-10.173
▁dzieje	-10.1734
▁producentów	-10.1736
▁danym	-10.174
▁doświadczenia	-10.174
▁zabezpieczenia	-10.174
74	-10.1741
▁samorządów	-10.1742
fin	-10.1748
▁reguł	-10.1752
-2	-10.1752
▁Bor	-10.1755
▁majątku	-10.1757
owani	-10.1757
gła	-10.176
żąc	-10.1762
71	-10.1771
▁kolo	-10.1771
▁zainteresowany	-10.1772
▁Pragnę	-10.1772
▁brzeg	-10.1773
▁przestrzega	-10.1787
▁oświaty	-10.1787
▁funkcjonują	-10.1788
OR	-10.1789
▁podziału	-10.1789
▁zaproponowan	-10.1794
▁krytyk	-10.1796
niejszy	-10.1797
▁Polskę	-10.1802
▁zaczął	-10.1803
pierw	-10.1805
▁Trzeba	-10.181
niejszym	-10.181
45	-10.1812
93	-10.1815
lski	-10.1819
▁Kości	-10.1823
▁Ti	-10.1824
▁Drugi	-10.1825
▁zainteresowani	-10.1827
▁wstrzymało	-10.1828
▁wysokie	-10.1832
ped	-10.1832
czności	-10.1836
▁Ziemi	-10.1839
▁Kraków	-10.1848
▁kredytów	-10.1855
▁Czas	-10.1858
shi	-10.1859
▁stanowisk	-10.1862
▁Henryk	-10.1863
▁Tam	-10.1868
▁Władysław	-10.1871
▁lekarzy	-10.1873
▁wpływa	-10.1874
▁Józef	-10.1876
▁poinformował	-10.1879
▁placówki	-10.188
▁ulg	-10.1885
▁stwierdzić	-10.1886
▁Mal	-10.1888
▁podział	-10.1891
▁skutek	-10.1894
IA	-10.1898
rop	-10.1904
▁stop	-10.1906
▁dyrektyw	-10.191
ością	-10.1916
▁staje	-10.1921
▁społeczności	-10.1921
▁forum	-10.1921
▁świątyni	-10.1925
▁Poznaniu	-10.1925
▁Poznań	-10.1928
▁aut	-10.1931
liście	-10.1934
▁trafił	-10.1935
▁magazyn	-10.194
▁Wydaje	-10.1948
▁czasów	-10.1949
▁zapewnienie	-10.1953
▁udziałem	-10.1954
▁pewnym	-10.1956
brał	-10.1963
▁świetle	-10.1964
▁organizm	-10.1968
▁Osob	-10.197
▁uzyskać	-10.1971
▁rzeczywistości	-10.1971
cław	-10.1978
▁planu	-10.1988
69	-10.1998
▁dyrektora	-10.2
▁jasno	-10.2004
▁Film	-10.201
▁przyjęte	-10.2011
▁narodowy	-10.2012
▁stać	-10.2012
▁trudności	-10.2013
▁grudniu	-10.2018
▁szyb	-10.2022
▁pasażer	-10.2026
▁powszechne	-10.2026
▁bla	-10.2028
nięciu	-10.2031
▁pięć	-10.2034
nicza	-10.2038
▁zgody	-10.2038
▁junior	-10.2042
narodowe	-10.2043
▁zobowiązań	-10.2049
▁Armii	-10.205
▁ekonomiczne	-10.205
▁konkretne	-10.205
▁dotyczą	-10.2055
gad	-10.2058
▁leków	-10.206
kret	-10.2061
▁wykorzystanie	-10.2064
▁zwiększenia	-10.2065
arnej	-10.2066
sol	-10.2067
wczych	-10.2068
81	-10.2072
▁wyklu	-10.2073
▁europejskich	-10.2074
niejsza	-10.208
▁lotnisk	-10.2082
▁Pytanie	-10.2087
▁posiedzenia	-10.2089
▁Platformy	-10.2096
▁ujawni	-10.2096
▁fe	-10.21
▁grał	-10.2102
▁tle	-10.2105
▁mojego	-10.2105
▁archi	-10.2108
Zachodni	-10.211
▁jakby	-10.2116
ńców	-10.2118
▁chorych	-10.2121
ling	-10.2124
▁dochodzi	-10.2125
▁brytyjski	-10.2128
▁instytucja	-10.2128
lona	-10.2129
rabia	-10.2131
▁Oprócz	-10.2133
▁następujące	-10.2134
▁biorąc	-10.2136
▁parafia	-10.2139
▁prokuratur	-10.2144
▁oddziały	-10.2145
▁reszt	-10.2146
▁ono	-10.2155
▁Sza	-10.2157
▁zagraniczne	-10.2162
▁grupie	-10.2165
▁tryb	-10.2168
▁Bur	-10.2169
▁dach	-10.2173
000	-10.2177
▁uszkodz	-10.2183
▁Straży	-10.2186
▁spotkań	-10.2188
▁samych	-10.2188
▁czemu	-10.2189
▁włos	-10.2191
bert	-10.2192
▁największe	-10.2193
▁pracownika	-10.2197
▁funkcjonowanie	-10.2199
nęły	-10.2207
22	-10.2211
▁Sojuszu	-10.2212
wiadomi	-10.2217
▁uderz	-10.2217
▁Nowo	-10.2218
▁Chor	-10.222
▁żołnierz	-10.2228
▁kary	-10.2231
▁fotograf	-10.2232
▁profil	-10.2233
▁Bydgoszcz	-10.2239
▁podatkowych	-10.2239
▁otwarci	-10.2239
▁ogromne	-10.2247
▁zasług	-10.2248
▁zawodowej	-10.2253
▁sygnał	-10.2253
▁mojej	-10.2255
don	-10.2255
28	-10.2258
▁Była	-10.2263
▁etat	-10.2265
ight	-10.2267
▁ograniczenie	-10.2271
▁korzyści	-10.2271
▁prawnym	-10.2271
▁miesza	-10.2285
▁Współ	-10.2287
▁miejskie	-10.2299
▁umow	-10.2304
źnie	-10.2306
-3	-10.2311
▁rozpoczyna	-10.2311
▁Cu	-10.2311
▁procesie	-10.2312
łączył	-10.2313
▁Chcę	-10.2316
▁poczt	-10.2317
▁budynek	-10.2319
▁przygotowanie	-10.2319
▁przyjęcia	-10.2319
▁Świat	-10.2325
ystów	-10.2327
projekt	-10.2328
▁zatrudnia	-10.2334
▁uległ	-10.2334
▁inwestycje	-10.2335
▁sprawia	-10.2337
▁zlikwidowa	-10.2343
▁wież	-10.2345
▁obs	-10.2346
▁wciąż	-10.2347
świadczenia	-10.2347
ystyczny	-10.2348
▁niezbędny	-10.2351
▁wreszcie	-10.2351
▁podobne	-10.2353
▁ulega	-10.2354
▁punkty	-10.2366
▁krótko	-10.2367
iny	-10.2371
▁drogą	-10.2375
▁zajęcia	-10.2376
zasad	-10.2379
▁szt	-10.238
▁teatr	-10.2383
▁najlepiej	-10.2383
▁wrześniu	-10.2383
▁Krajowej	-10.2384
▁służył	-10.2389
rzyć	-10.2392
▁Lud	-10.2394
▁stosowane	-10.2397
▁budynków	-10.24
▁styczniu	-10.24
▁podjęcia	-10.24
▁przedstawiony	-10.24
▁czytania	-10.2401
▁jakość	-10.2401
▁lekarza	-10.2402
▁składek	-10.2405
82	-10.2407
gla	-10.2411
▁stoi	-10.2413
▁maju	-10.2413
▁wynikające	-10.2413
▁dynam	-10.2415
▁walor	-10.2417
▁koron	-10.2422
▁leży	-10.2424
▁Spec	-10.2424
encje	-10.2426
▁uważam	-10.2435
▁mikro	-10.2436
▁znak	-10.2439
▁powodzi	-10.244
▁Wojciech	-10.244
▁gospodarczego	-10.2442
▁straty	-10.2444
79	-10.2447
termin	-10.2448
▁zajmował	-10.2448
▁spotkanie	-10.2449
▁żąda	-10.245
▁handlowe	-10.245
obie	-10.2454
▁Th	-10.2455
▁niewielki	-10.2464
▁Polak	-10.2467
▁organizacja	-10.2467
▁Trans	-10.2468
▁liście	-10.2473
▁propozycje	-10.2473
kowskiego	-10.2479
▁Dzisiaj	-10.2481
▁architekt	-10.2481
▁most	-10.2484
▁Cha	-10.2487
izację	-10.2488
▁lokalne	-10.2495
▁Aleksandr	-10.2497
▁porównaniu	-10.2497
▁obszarów	-10.2501
pust	-10.2502
▁Państwo	-10.2502
▁odrzuceniem	-10.2503
▁wykonanie	-10.2509
▁katalog	-10.2514
CH	-10.2514
▁podatkowe	-10.2515
▁kro	-10.2517
▁Sądu	-10.2518
czoł	-10.252
▁sami	-10.252
▁obowiązujących	-10.2523
▁wydania	-10.2524
▁swego	-10.2527
▁Państwowej	-10.2528
▁Sal	-10.2532
▁czynienia	-10.2534
pak	-10.2536
▁Temat	-10.2537
▁Problem	-10.2547
▁cha	-10.2547
▁zapozna	-10.2547
▁odrzucił	-10.2548
▁zagrożenie	-10.2555
▁pomimo	-10.2556
alizacja	-10.2556
▁odpowiednich	-10.2556
▁Parlamentarny	-10.2563
▁struktury	-10.2566
▁Niemczech	-10.2571
▁zwiększy	-10.2571
▁Rolnictwa	-10.2572
▁nowa	-10.2577
▁pil	-10.258
▁nosi	-10.2588
▁dra	-10.259
▁okazał	-10.2598
▁poprawy	-10.2599
▁promocji	-10.2604
bór	-10.2604
ung	-10.261
▁czerwcu	-10.2612
▁wskazać	-10.2612
▁ubezpieczeń	-10.2615
jska	-10.262
cyjnej	-10.262
▁najwyższy	-10.2621
▁olimpijskich	-10.2621
▁zaledwie	-10.2621
▁Wysoka	-10.2621
▁ustroj	-10.2622
ork	-10.2622
▁administracyjny	-10.2624
▁okręg	-10.2626
ark	-10.2627
▁pier	-10.2629
▁rządowej	-10.263
yjnego	-10.2631
▁pamięta	-10.2633
▁rozmiar	-10.2633
▁terminu	-10.2635
▁placówek	-10.2637
▁Rol	-10.2639
dano	-10.2648
▁Józefa	-10.2649
właściw	-10.2655
▁zarządu	-10.2655
▁handlu	-10.266
▁Każdy	-10.2662
▁Celem	-10.2664
van	-10.2666
▁produkty	-10.2666
▁zbroj	-10.2669
▁Ur	-10.2671
▁połowy	-10.2682
polit	-10.2682
▁Er	-10.269
▁uniemożliwi	-10.2695
▁36	-10.2696
▁45	-10.2697
▁Obywatelskiej	-10.2697
▁technologii	-10.2701
▁temperatur	-10.2704
▁zamówienia	-10.2704
ystyczne	-10.271
▁Również	-10.2712
▁bezpieczeństwo	-10.2721
▁filmu	-10.2721
▁Urząd	-10.2721
▁energetyczne	-10.2723
▁dostępne	-10.2725
▁Śląski	-10.2727
łuż	-10.2727
▁duży	-10.2732
▁planowane	-10.2736
▁zresztą	-10.2737
▁zmienił	-10.2739
▁przemysłu	-10.2746
▁żadnej	-10.2754
▁Uważam	-10.2754
▁Lot	-10.2768
▁szkołach	-10.2773
▁sym	-10.2781
▁Australi	-10.2788
▁mięs	-10.2794
▁Agencji	-10.2797
▁New	-10.2798
▁urlop	-10.2805
▁zapisy	-10.2808
tic	-10.2809
▁zawodach	-10.2813
▁regionu	-10.2819
▁Antoni	-10.2822
KO	-10.2829
▁publiczne	-10.2829
▁położony	-10.283
▁interpret	-10.2833
▁ląd	-10.2833
▁obecne	-10.2834
▁sal	-10.2836
▁TV	-10.2837
suwa	-10.2843
des	-10.2844
▁pewien	-10.2847
han	-10.2849
nger	-10.2854
▁pierwsza	-10.2855
▁Kościół	-10.2857
▁danej	-10.2858
▁listę	-10.287
▁specjalne	-10.287
▁składzie	-10.2871
▁przesył	-10.2875
▁powstały	-10.2876
▁wynosiła	-10.2876
▁stosuje	-10.288
▁Czarn	-10.2881
▁drzwi	-10.2881
▁urzędów	-10.2881
▁pakiet	-10.2881
▁przebiega	-10.2888
▁indywidu	-10.2895
▁super	-10.2897
szkodow	-10.2898
▁rosną	-10.29
▁zastąpi	-10.291
▁wolny	-10.2912
▁głosowaniu	-10.2913
▁mocno	-10.2915
▁Izba	-10.2915
stawia	-10.2919
▁łatwo	-10.292
▁całe	-10.2922
▁postulat	-10.2923
▁Kas	-10.2924
▁dofinansowanie	-10.2924
siad	-10.2924
berg	-10.2927
▁siedzibą	-10.2932
▁gruntów	-10.2932
▁Robert	-10.2934
▁cieszy	-10.2943
▁najpierw	-10.2944
▁Plan	-10.2946
▁marcu	-10.2946
▁korzystania	-10.2948
dzony	-10.2949
▁wytwarza	-10.2958
▁stopień	-10.2958
▁północny	-10.296
łbym	-10.2963
▁chi	-10.2965
▁lipcu	-10.2966
CZ	-10.2967
▁polsko	-10.2967
▁terenu	-10.2968
▁rzeki	-10.2976
▁zawartych	-10.2976
▁zalicza	-10.2981
▁dodać	-10.2982
▁udzielenie	-10.2983
▁wodne	-10.2984
▁świad	-10.2987
pokój	-10.2991
▁przypadki	-10.2993
▁dba	-10.2997
▁powtarza	-10.3
▁dochodowy	-10.3002
▁doktora	-10.3003
▁postęp	-10.3003
▁opóźni	-10.3003
▁Jerzy	-10.3009
▁aparat	-10.301
▁Mamy	-10.3011
owice	-10.3014
▁kwot	-10.3015
▁Fin	-10.3029
cko	-10.3029
śla	-10.3029
▁Instytutu	-10.3034
▁marszałek	-10.3035
▁elementem	-10.3039
▁spowoduje	-10.3044
▁powołany	-10.305
▁Edukacji	-10.3061
pozycja	-10.3064
▁urzędnik	-10.3064
hu	-10.3065
▁budżecie	-10.307
▁klimat	-10.307
▁indywidualnych	-10.3071
▁pracownicy	-10.3073
▁rywal	-10.3073
▁Szczecin	-10.3078
▁Powiat	-10.3081
▁razu	-10.3084
▁usłysz	-10.3087
▁zawodów	-10.3088
▁emeryt	-10.3089
finansowa	-10.3089
▁Order	-10.3092
▁przepisach	-10.3093
▁sprawą	-10.3095
▁Mikołaj	-10.3096
▁zapobiega	-10.3096
liwości	-10.3097
▁międzynarodowy	-10.3101
▁wpływu	-10.3103
▁Początkowo	-10.3104
▁ewentualne	-10.3104
▁wyjazd	-10.3104
▁Indi	-10.3112
▁postanowił	-10.3114
▁Ruch	-10.3115
rażeni	-10.312
▁piłkarz	-10.3122
▁złożył	-10.3124
▁zbiera	-10.3125
▁leśn	-10.3127
IS	-10.3127
▁szlak	-10.3129
▁powszechny	-10.313
▁poszukiwan	-10.313
▁pewnych	-10.3139
▁mieści	-10.314
ienne	-10.3142
owce	-10.3147
▁dotychczasowych	-10.3152
▁wywoła	-10.316
▁rozegra	-10.3161
rzystępujemy	-10.3171
▁wdraża	-10.3183
puścił	-10.3188
▁autobus	-10.3192
▁ślub	-10.3203
▁wspólne	-10.3207
▁gazu	-10.3208
▁bieżące	-10.3209
▁Zawod	-10.3213
▁medycznych	-10.3221
▁utrzymanie	-10.3224
▁członka	-10.3227
▁honor	-10.3229
pet	-10.3229
▁Musi	-10.323
▁400	-10.3235
▁przedstawił	-10.3241
▁pewnie	-10.3245
▁podjęcie	-10.3253
▁czasach	-10.3255
▁wykonane	-10.3255
▁pozwalają	-10.3261
▁warsztat	-10.3262
uczciw	-10.3263
ństwo	-10.3263
▁zwyczaj	-10.3265
wszy	-10.3266
▁propozycja	-10.3266
▁niezależnie	-10.3271
akt	-10.3274
▁świadczy	-10.3277
▁potrzebne	-10.3281
▁udzieli	-10.3281
NI	-10.3284
▁pożar	-10.3294
▁5-	-10.3295
her	-10.3297
▁organizacyjne	-10.3298
▁twarz	-10.3298
OS	-10.3299
▁Banku	-10.3299
▁Gor	-10.3301
▁opiera	-10.3302
▁Mark	-10.3305
▁mniejsze	-10.3305
▁Sze	-10.3305
▁Inspekcj	-10.3306
▁samorządy	-10.3306
▁wiatr	-10.3311
ól	-10.3311
▁Mon	-10.3312
▁33	-10.3313
▁chwilę	-10.3316
▁wydział	-10.3317
▁niezgodn	-10.3319
▁aspekt	-10.3326
▁wewnętrzne	-10.3333
▁koło	-10.3342
▁zawodnik	-10.3343
▁wersja	-10.3343
nus	-10.3348
społ	-10.3348
▁NFZ	-10.3351
▁telewizji	-10.3351
▁tysiąc	-10.3352
▁piśmie	-10.336
▁uczestników	-10.336
▁trzyma	-10.3363
AT	-10.3364
▁komplet	-10.3368
▁artysty	-10.3368
▁wynagrodzeń	-10.3368
sje	-10.3371
▁Włoch	-10.3374
▁Chin	-10.3374
▁Jednakże	-10.3379
▁przeprowadził	-10.3379
▁150	-10.338
▁Berlin	-10.3381
▁wiary	-10.3383
▁kampanii	-10.3386
▁ogół	-10.3387
ręb	-10.3392
▁wynikających	-10.3393
▁konsultacji	-10.3395
▁szczególne	-10.3395
organizowani	-10.3395
▁łączy	-10.3403
zować	-10.3405
▁nomin	-10.3407
ect	-10.3411
▁hand	-10.3413
▁odcinku	-10.3413
kryty	-10.3414
▁XVIII	-10.3417
▁administracyjn	-10.3417
▁skorzysta	-10.3421
▁Większość	-10.3422
▁wschód	-10.3432
wiązanie	-10.3433
▁planuje	-10.3435
▁oszczędności	-10.344
dwor	-10.3444
▁Con	-10.3445
▁wrócił	-10.3447
▁języku	-10.3448
▁jednakże	-10.3449
▁sprzętu	-10.3453
▁następuje	-10.3459
▁Com	-10.3461
▁turniej	-10.3461
▁nieprze	-10.3463
▁uwzględnia	-10.3463
Wschodni	-10.3464
▁napęd	-10.3472
▁mój	-10.3474
▁doświadczenie	-10.3476
▁Tar	-10.3476
▁relacji	-10.3477
▁pt	-10.3478
▁studentów	-10.348
▁kosm	-10.3481
niczą	-10.3481
▁kg	-10.3482
▁otwarty	-10.3485
▁stwierdza	-10.349
▁wyższy	-10.3497
▁zakon	-10.3502
▁portal	-10.3502
▁zachowanie	-10.3505
▁układu	-10.3505
▁spr	-10.3506
▁kupi	-10.3508
▁kaplic	-10.3508
▁początkowo	-10.3512
▁spod	-10.3513
▁dyplom	-10.3514
▁słysz	-10.3516
▁Nowy	-10.3519
▁wiemy	-10.3521
▁kolejności	-10.3531
▁wyjaśnienia	-10.3536
▁Zespół	-10.3539
▁skutecznie	-10.3539
▁wzięło	-10.3539
▁właściwości	-10.354
▁pałac	-10.3543
▁Trybunał	-10.3543
▁połączenia	-10.3549
▁ukazał	-10.355
▁ojca	-10.3556
▁Marcin	-10.3556
▁zbiornik	-10.3557
2%	-10.3559
▁Las	-10.3559
▁położone	-10.3562
▁Biel	-10.3562
owcy	-10.3564
ker	-10.3565
▁zmienić	-10.3566
▁zazwyczaj	-10.3567
▁korzystać	-10.3571
▁chcieli	-10.3573
▁finansowanie	-10.3574
▁poinformować	-10.3576
▁odnośnie	-10.3576
▁zgadza	-10.3576
samo	-10.3582
▁Środowiska	-10.3585
▁pamięci	-10.3585
▁prowadzonych	-10.3587
▁pochodzenia	-10.3587
▁objęci	-10.3592
▁szybki	-10.3594
▁psycholog	-10.3597
▁unika	-10.3601
▁problemem	-10.3616
▁konserw	-10.3622
▁rozumiem	-10.3622
▁prywatne	-10.3624
▁Polską	-10.3625
▁bazy	-10.3627
KA	-10.3628
▁mających	-10.3632
▁postępowaniu	-10.3633
▁powyższego	-10.3637
▁pozycję	-10.364
▁Ant	-10.3642
▁chociażby	-10.3642
▁każde	-10.3643
▁zwrot	-10.3645
▁opinię	-10.3646
-18	-10.3647
▁Jedn	-10.3647
▁marszałka	-10.3649
▁tajemnic	-10.3653
▁wynikiem	-10.3656
▁milion	-10.3658
▁bibliotek	-10.3658
▁ubezpiecz	-10.3665
▁Hol	-10.3665
▁Mając	-10.367
▁dotyczącej	-10.3671
▁ciężar	-10.3677
bez	-10.3677
▁sprawdza	-10.3683
▁poważne	-10.3685
▁faktycznie	-10.3686
▁Wrocławiu	-10.3688
▁przewodni	-10.369
▁wrażenie	-10.369
czer	-10.3691
▁PZ	-10.3692
▁własnym	-10.3692
▁konsument	-10.3695
▁zaprasza	-10.3695
▁propozycję	-10.3704
▁polską	-10.3705
bul	-10.3705
▁wolne	-10.3706
▁miejscach	-10.3715
▁moderniz	-10.3717
▁październiku	-10.3723
▁przeciwdziałani	-10.3723
▁branży	-10.3731
▁strat	-10.3733
▁mieszkaniowe	-10.3736
▁muzyki	-10.3738
liwość	-10.3738
▁wydanie	-10.3738
▁Ang	-10.3739
▁istniał	-10.3742
▁Niemcy	-10.3743
▁Char	-10.3744
1%	-10.3744
▁(18	-10.3746
▁kuchni	-10.3746
3%	-10.3749
▁kadry	-10.375
▁zachowania	-10.375
▁tworzenie	-10.375
▁administracyjne	-10.3752
ssa	-10.3755
▁ustalenia	-10.376
łączenie	-10.3761
▁zamiar	-10.3765
▁Miał	-10.3766
▁sygn	-10.3766
▁nakłada	-10.3767
▁noc	-10.3771
▁zmniejszenie	-10.3778
▁Europejskiego	-10.378
▁funkcje	-10.3788
▁pamiętać	-10.3792
czkę	-10.38
▁użytkownik	-10.3806
▁obszaru	-10.3806
▁podpisał	-10.3808
▁urodził	-10.3808
▁regionalne	-10.381
▁chwil	-10.3813
▁fizycznych	-10.382
▁inf	-10.3822
▁gier	-10.3823
▁naukowych	-10.3824
▁granicą	-10.3843
▁wiąże	-10.3844
jechał	-10.385
▁ekolog	-10.3853
▁południowy	-10.3862
▁środowisko	-10.3871
▁wyciąg	-10.3872
▁Stefan	-10.3873
▁Jednym	-10.3874
odpowiedzialność	-10.3876
▁hipo	-10.3876
▁filozof	-10.3891
▁debaty	-10.3891
▁cyfr	-10.3891
▁wprowadził	-10.3892
▁wejście	-10.3895
▁własnej	-10.3904
▁poddan	-10.3904
▁opłaca	-10.3907
▁wewnątrz	-10.3909
▁zobowiązania	-10.3909
▁SLD	-10.3909
▁żaden	-10.391
energety	-10.3914
▁cesarz	-10.3919
▁Prezydium	-10.3928
▁wydarzenia	-10.3928
▁zobacz	-10.3929
▁Złot	-10.393
▁Prezes	-10.3938
▁wystarczy	-10.3938
godne	-10.3945
▁dźwięk	-10.3947
▁współpracę	-10.3947
▁głównych	-10.3951
▁rozważa	-10.3952
▁metody	-10.3955
▁ministrowi	-10.3957
▁wnioskiem	-10.3959
luz	-10.3959
▁pracach	-10.3961
▁sezonu	-10.3962
▁wyników	-10.3962
▁funkcjonariuszy	-10.3963
▁momentu	-10.3965
▁większą	-10.3966
▁elektro	-10.3969
▁Organizacj	-10.3973
▁apel	-10.3974
arstwa	-10.3976
▁kal	-10.3977
▁ligi	-10.3986
▁ręce	-10.3989
▁Port	-10.3991
▁Sejmie	-10.3993
▁dalszych	-10.3995
▁opodatkowania	-10.3998
▁Stanowi	-10.4
▁cyt	-10.4013
▁objął	-10.4014
▁Towarzystwa	-10.4017
▁Pierwsza	-10.4023
▁natychmiast	-10.4023
▁dostarcza	-10.4023
▁płatności	-10.4023
kur	-10.4027
▁możesz	-10.4028
▁przegląd	-10.4029
▁programie	-10.403
▁dia	-10.404
łóż	-10.4042
▁Met	-10.4047
▁wymiaru	-10.4061
▁Publicznych	-10.4068
▁podstawowe	-10.4069
▁organizator	-10.4071
terapii	-10.4071
ern	-10.4074
▁kwiat	-10.4074
▁godziny	-10.4081
▁dostał	-10.4096
▁zrezygnowa	-10.41
RE	-10.4107
▁zgodne	-10.4112
mobil	-10.4114
▁zakładu	-10.4117
▁wysokiej	-10.4118
▁listopadzie	-10.4119
▁Gdyby	-10.4121
▁stosowany	-10.4125
▁PiS	-10.4126
▁włoski	-10.4128
▁Wojewódzki	-10.4128
▁instytucje	-10.4128
▁karnego	-10.4129
▁rządowym	-10.4131
▁systemów	-10.4135
▁tworząc	-10.4136
▁stwarza	-10.4138
▁wiedzą	-10.4139
▁szeroki	-10.4143
▁skuteczne	-10.4148
ning	-10.4152
▁terenów	-10.4155
▁finansowego	-10.416
MA	-10.4162
▁opinie	-10.4166
▁odległości	-10.4167
▁pilot	-10.4169
:1	-10.417
sco	-10.417
▁materiału	-10.4178
▁kwietniu	-10.4196
▁źródło	-10.4196
▁kryteria	-10.4196
▁przepisu	-10.42
▁bilet	-10.4203
▁Administracji	-10.4206
▁spotka	-10.4208
▁politykę	-10.4215
▁Komisję	-10.4215
▁marszałku	-10.4215
▁rozpoczęła	-10.4215
▁Tarn	-10.4216
▁polska	-10.4216
▁miejscowość	-10.4217
▁wymienione	-10.4218
▁szansę	-10.422
▁ministerstwa	-10.422
▁www	-10.4227
▁kiedyś	-10.4233
▁poszczególne	-10.4235
graficzn	-10.4235
▁spodziewa	-10.4236
▁Jedyn	-10.4237
▁Janusz	-10.4241
▁najlepszych	-10.4244
▁milionów	-10.4248
▁rozegrał	-10.425
▁aktywności	-10.4251
arka	-10.4253
▁ochronę	-10.4254
▁zapisów	-10.4259
▁wybór	-10.4262
▁Kontroli	-10.4264
▁określenia	-10.4265
kazywał	-10.4274
▁emerytury	-10.4279
▁oblig	-10.4279
▁powiem	-10.4279
▁określenie	-10.428
▁Hel	-10.428
cjom	-10.4291
▁Tele	-10.4294
▁modelu	-10.4295
▁Nazwa	-10.4296
▁Pal	-10.4301
▁bal	-10.4304
▁Miasta	-10.4304
prowadzenie	-10.4305
▁okręgu	-10.4307
▁warunk	-10.431
▁powstanie	-10.4313
▁1918	-10.4315
▁polegające	-10.4323
▁wyrobów	-10.4323
▁1920	-10.4325
▁Konstytucyjnego	-10.4326
▁tablic	-10.4333
▁Słowa	-10.4334
▁wprowadzić	-10.4334
▁gminie	-10.4335
▁dobrym	-10.4341
▁uprawniony	-10.4344
▁kanał	-10.4349
▁najważniejsze	-10.4352
▁dramat	-10.4355
▁odbyła	-10.4356
went	-10.436
▁mówimy	-10.436
▁znaczenia	-10.4363
gospodarcze	-10.4367
▁zadaniem	-10.4367
ywaniu	-10.4368
▁dochody	-10.4376
▁mianowicie	-10.4382
▁zmniejsza	-10.4383
▁Skarb	-10.4383
▁ćwicz	-10.4386
▁spotkaniu	-10.4388
ierzch	-10.4391
▁Pozostał	-10.4392
▁ostatnio	-10.4392
▁społecznym	-10.4395
▁wydał	-10.4398
▁rolnik	-10.4398
▁Instytut	-10.4403
pędza	-10.4405
IT	-10.4409
budowana	-10.4411
LE	-10.4417
dzkiego	-10.4417
▁wojewódzkich	-10.4418
▁Szkoły	-10.4422
▁podejmuje	-10.4422
▁areszt	-10.4425
istą	-10.4432
▁kredytu	-10.4441
▁Autor	-10.4441
▁czwarte	-10.4443
▁1988	-10.4451
▁Brak	-10.4453
▁duża	-10.4456
▁Jedno	-10.4459
▁pozostałe	-10.4461
▁sprzyja	-10.4461
▁Wydziału	-10.4461
▁trwają	-10.4462
▁różnego	-10.4467
▁Ed	-10.4471
▁specjalnych	-10.4481
▁czasami	-10.4482
▁nazwą	-10.4493
▁pracuje	-10.4501
▁przeprowadzenia	-10.4501
▁Teatr	-10.4504
▁prosty	-10.4505
▁indywidualne	-10.4508
legły	-10.451
▁przypadków	-10.4511
▁wojskowych	-10.4512
▁utrzymaniem	-10.4513
▁wieloletni	-10.4515
▁stawki	-10.4515
▁robić	-10.4518
▁Tymczasem	-10.4521
▁najwyższe	-10.4521
▁porozumienia	-10.4521
▁Stąd	-10.4521
▁Pawła	-10.4522
▁wygląd	-10.4524
▁zakończenie	-10.4528
▁stadion	-10.4531
▁papież	-10.4531
niesiono	-10.4532
▁odpowiedzialny	-10.4534
wyraźn	-10.4535
▁Syn	-10.454
▁małżeństw	-10.4541
▁lutym	-10.4541
▁zaznaczyć	-10.4542
▁Zbigniew	-10.4551
elekt	-10.4553
▁katastrof	-10.4561
▁potencjał	-10.4561
▁zróżnicowa	-10.4571
▁interesów	-10.4572
▁darmo	-10.4576
▁Kos	-10.4578
▁załącznik	-10.4581
▁warstw	-10.4582
▁produktu	-10.4583
▁mierze	-10.4585
▁Stat	-10.4586
▁pokrywa	-10.4588
▁kręg	-10.4591
▁konstrukcji	-10.4592
▁wiadomości	-10.4593
▁szczegółowe	-10.4595
▁kolekcj	-10.4597
▁zainteresowanie	-10.4599
▁mieszkańcy	-10.4599
▁przerwa	-10.4602
▁ryzyko	-10.461
▁budżetowych	-10.4613
dając	-10.4618
▁pełny	-10.4618
▁stwierdził	-10.4622
▁Partii	-10.4622
▁Podobnie	-10.4632
▁ewidencj	-10.4632
▁niniejsz	-10.4632
▁podstawowej	-10.4633
▁gospodarczą	-10.4637
▁oferuje	-10.4642
▁August	-10.4642
▁półroczu	-10.4642
▁Poselski	-10.4642
tward	-10.4643
▁ogólnej	-10.4645
▁imię	-10.4647
▁Kla	-10.465
▁Zarządu	-10.4652
▁zdecydował	-10.4652
▁związków	-10.4653
▁Internet	-10.4653
▁dyspozycji	-10.4662
▁umowa	-10.4667
led	-10.4668
▁zwrócił	-10.4675
▁formuł	-10.4675
36	-10.4676
▁zawodu	-10.4685
▁dwukrotnie	-10.4685
▁1000	-10.4686
▁objaw	-10.4689
wrócić	-10.4694
▁zdrowotnych	-10.4699
▁pomiar	-10.47
▁Miejski	-10.4701
▁osobę	-10.4705
▁1980	-10.4707
▁moment	-10.471
▁XVI	-10.4721
oszczęd	-10.4721
▁wysoko	-10.4726
▁rolnicze	-10.473
niejszą	-10.4733
▁Wewnętrznych	-10.4744
▁mieszkanie	-10.4747
▁usuwa	-10.4752
▁1982	-10.4752
▁częściowo	-10.4758
piera	-10.4764
▁Pomimo	-10.4765
▁Sił	-10.4774
▁muszę	-10.4775
▁Zmarł	-10.4776
noszenia	-10.4777
▁operator	-10.478
▁działacz	-10.4781
▁skarg	-10.4782
▁drogę	-10.4785
▁ciągle	-10.4786
▁źle	-10.4786
▁banków	-10.479
▁uprawia	-10.4791
▁nocy	-10.4792
spółdzielcz	-10.4795
▁Później	-10.4795
▁przedstawienia	-10.4798
▁proste	-10.48
▁Sztuk	-10.4803
▁von	-10.4806
▁podatek	-10.4807
-4	-10.4809
▁internetowej	-10.4814
▁wypłaca	-10.4817
▁rozmawia	-10.4823
▁kariery	-10.4827
▁Wieś	-10.4829
▁ośrodka	-10.4831
▁wydany	-10.4834
▁Igrzysk	-10.4837
▁oddziałów	-10.4839
▁nadzwyczaj	-10.4842
▁igrzysk	-10.4846
▁pięciu	-10.4857
▁pen	-10.4866
▁organizacje	-10.4868
▁ogromny	-10.4868
▁Obrony	-10.4868
NE	-10.4868
▁powiedz	-10.4873
hr	-10.4875
▁Przecież	-10.4878
▁zgłosił	-10.4878
▁lokali	-10.4881
▁Gar	-10.4881
▁Wit	-10.4886
potrzeb	-10.4887
nieprawidłowości	-10.4888
▁osiągnięcia	-10.4888
▁granicach	-10.489
▁zwrotu	-10.4894
▁uzasadnienia	-10.4899
▁przejazd	-10.4909
▁doprowadzić	-10.491
niosły	-10.4911
▁wspólny	-10.4916
▁traktat	-10.4918
▁niedziel	-10.4919
▁aktualnie	-10.4922
▁umowę	-10.4924
▁Auto	-10.4925
łączony	-10.4928
▁przeprowadzone	-10.494
ward	-10.4943
medi	-10.4944
▁egz	-10.4949
▁zlokalizowan	-10.4951
zował	-10.4955
▁przeznaczonych	-10.496
▁Nowym	-10.496
sing	-10.496
▁Szkole	-10.4962
▁przyszłe	-10.4963
▁żydowski	-10.4965
PA	-10.4968
▁zasila	-10.497
techniczny	-10.4973
▁Fre	-10.498
bronn	-10.4982
▁zespołów	-10.4982
▁przyjąć	-10.4984
▁Radę	-10.4985
▁jedynym	-10.499
▁Przemysł	-10.4992
▁przepływ	-10.4993
▁załatwi	-10.4993
▁stąd	-10.4993
▁głównego	-10.4994
▁narusza	-10.4994
▁wymagania	-10.4999
▁oczekiwania	-10.5003
▁wnioskodawcy	-10.5003
▁mecze	-10.5008
▁śląsk	-10.5014
▁sierpniu	-10.5014
▁instal	-10.5017
▁Europejską	-10.5024
▁Jarosław	-10.5024
▁wyjaśnia	-10.5025
łączenia	-10.5028
▁okazało	-10.5033
kręt	-10.5034
▁alternatyw	-10.5035
▁inżynier	-10.5035
▁karierze	-10.5035
▁dotarł	-10.5035
▁odcinka	-10.5036
▁Fil	-10.5036
▁podległ	-10.5043
OP	-10.5045
▁chr	-10.5045
▁Wydziale	-10.5046
▁rejestru	-10.5051
▁przedsięwzięcia	-10.5056
▁Jerzego	-10.5056
▁rodzinnych	-10.5064
▁Komend	-10.5064
▁zwolnienia	-10.5067
▁pomnik	-10.507
IN	-10.5074
▁emerytalne	-10.5076
▁powinniśmy	-10.5078
▁wymienionych	-10.5083
▁dolarów	-10.509
▁bied	-10.509
▁terenach	-10.5091
▁flo	-10.5091
▁wojewódzkie	-10.5097
▁dalszym	-10.5098
▁miarę	-10.51
▁marki	-10.5103
spekt	-10.5105
▁najważniejszych	-10.5105
▁samorządowych	-10.5109
▁placówka	-10.5112
▁odnosząc	-10.5114
▁politycznej	-10.5115
▁własnego	-10.5117
▁1985	-10.512
▁powszechnie	-10.512
▁powodów	-10.5121
▁lider	-10.5122
▁wielko	-10.5134
▁cywilnego	-10.5135
▁lod	-10.5136
▁główny	-10.5139
▁prywatyz	-10.5143
▁szybkie	-10.5144
▁młode	-10.5152
▁obecnym	-10.5155
▁1972	-10.5162
▁Oznacza	-10.5162
▁obowiązują	-10.5165
▁Rzecz	-10.5172
▁Polacy	-10.5174
▁nauczania	-10.5176
▁stanowiący	-10.5179
ett	-10.5181
▁kwestię	-10.5184
▁wczoraj	-10.5184
▁absolut	-10.5184
▁wspomina	-10.5184
▁bezrobocia	-10.5194
▁stworzenie	-10.5205
znajd	-10.5212
▁przypomnieć	-10.5216
▁finansowym	-10.5218
▁katolicki	-10.5225
▁Część	-10.5227
▁daleko	-10.5227
▁drugą	-10.5237
7%	-10.5242
▁oświadczeń	-10.5248
▁uzyskanie	-10.5253
▁podlegają	-10.5255
▁lidze	-10.5255
▁rocznie	-10.5258
▁ogłoszenia	-10.5259
▁powiatów	-10.5259
▁leżą	-10.5262
▁Będzie	-10.527
▁klubie	-10.5271
▁państwowej	-10.5272
łó	-10.5278
▁największych	-10.5279
▁głęboko	-10.528
▁Stanów	-10.5281
▁grupę	-10.5281
▁rozmowy	-10.5282
chwyt	-10.5286
▁ekip	-10.5288
▁wskazany	-10.5292
ciera	-10.5292
▁Premier	-10.5292
▁macierzy	-10.5295
▁Marek	-10.5296
▁konf	-10.53
▁Tre	-10.5301
▁Londynu	-10.5302
▁sportowe	-10.5307
▁wojskowej	-10.5309
▁dobrej	-10.5311
▁członkowie	-10.5313
▁sztuczn	-10.5314
strzyg	-10.5316
▁przewod	-10.5316
▁Sprawozdanie	-10.5324
▁operacji	-10.5328
▁większych	-10.533
łożeniu	-10.5335
▁kod	-10.5337
▁rekord	-10.5347
▁Kier	-10.5351
restrukturyzacji	-10.5353
przygotowywan	-10.5357
▁kół	-10.5357
▁zawodowego	-10.5358
CA	-10.5359
▁generał	-10.5367
▁Ameryka	-10.5367
▁zrobił	-10.5368
▁lepszy	-10.5372
▁twierdzi	-10.5374
▁niszcz	-10.5375
▁nakaz	-10.5378
▁promieni	-10.5378
▁miesiące	-10.5385
▁święto	-10.539
▁użytkowników	-10.5393
pres	-10.5394
▁ręka	-10.5394
wiązany	-10.5396
▁systematyczn	-10.5399
▁choćby	-10.5402
▁licznych	-10.5406
▁Największ	-10.5409
▁poważny	-10.5409
▁przygotowany	-10.5411
▁rocznic	-10.5415
▁naczeln	-10.5419
▁obszarach	-10.542
▁bezrobotnych	-10.5422
hor	-10.5426
▁białe	-10.5428
put	-10.5432
▁zabytków	-10.5433
▁pobytu	-10.5437
▁wspólnego	-10.5443
▁kłopot	-10.5444
▁pracodawców	-10.5444
▁organizacyjnych	-10.5444
▁trening	-10.5444
▁pojawiają	-10.5447
▁stosowanie	-10.5448
ther	-10.545
▁bomb	-10.5453
▁nowoczesny	-10.5456
▁szkoła	-10.5458
▁obowiązującym	-10.5458
▁Boga	-10.5459
▁bliski	-10.5462
▁debiut	-10.5466
▁rejonie	-10.5466
▁ślad	-10.5468
▁sprawozdaw	-10.547
▁skąd	-10.547
▁uznał	-10.5474
▁reduk	-10.5476
▁każda	-10.5477
▁druga	-10.5477
▁1987	-10.5487
tywne	-10.5487
▁1940	-10.5492
▁Mont	-10.5492
▁cywilnej	-10.5493
▁ogólny	-10.5494
▁międzynarodowej	-10.5499
▁Lin	-10.5509
▁1943	-10.5509
▁cudzoziem	-10.551
▁kwalifikacji	-10.551
▁nagrody	-10.5512
▁mógłby	-10.5513
▁lokat	-10.5519
▁Wydawnictwo	-10.5521
▁zastosowania	-10.5521
krąg	-10.5523
▁zawarty	-10.5525
▁Cor	-10.5527
▁dusz	-10.5529
▁dokonał	-10.553
▁świadczenie	-10.5533
▁zajęć	-10.5535
▁odmian	-10.5539
▁pozytywnie	-10.554
▁dłużej	-10.5544
▁Roman	-10.5548
▁wywiad	-10.5549
▁Dziś	-10.5556
▁osobowych	-10.5561
▁1984	-10.5564
▁batalion	-10.5565
▁deficyt	-10.5565
▁nadzór	-10.5566
▁objęte	-10.5566
▁mianowan	-10.5567
▁składki	-10.5575
▁Szczególn	-10.5577
▁ojciec	-10.5577
▁czele	-10.5579
▁ludzkie	-10.5579
czar	-10.5584
▁wieczor	-10.5588
KI	-10.5589
▁produkowan	-10.5589
▁pion	-10.5597
▁demo	-10.5597
▁budownictwa	-10.5599
▁Eks	-10.56
▁pracodawcy	-10.5602
▁brązowy	-10.5605
▁but	-10.5606
▁Urodził	-10.561
▁figur	-10.561
nowski	-10.5612
yzmu	-10.5636
▁stosunkowo	-10.5643
▁niewielkie	-10.5645
▁statut	-10.5645
▁Fer	-10.5645
▁planet	-10.5645
bój	-10.5646
▁wystąpienie	-10.565
▁rzeźb	-10.5655
▁kupić	-10.5663
płaca	-10.5664
▁zagrał	-10.5667
graficzny	-10.5669
▁kot	-10.5671
▁Komp	-10.5671
▁Wolności	-10.5673
▁małż	-10.5675
▁naturalne	-10.5681
staje	-10.5681
▁wyjechał	-10.5682
▁postać	-10.5686
▁przemian	-10.5687
▁agencji	-10.5689
▁odbyło	-10.5698
▁Dziękuję	-10.57
▁Miasto	-10.57
▁zajęła	-10.5702
▁Dal	-10.5703
▁średniej	-10.5703
▁Społecznych	-10.5707
▁stosowne	-10.5707
▁Izbę	-10.5711
▁Posiada	-10.5712
▁głowy	-10.5714
▁zatrudnionych	-10.5715
▁książki	-10.5716
bol	-10.5717
alizm	-10.572
▁gospodarce	-10.5723
▁proponują	-10.5723
▁zauważ	-10.5726
▁podatków	-10.5734
▁Mag	-10.5743
▁zasobów	-10.5745
stępując	-10.5746
ciąż	-10.5749
▁Jezus	-10.5756
▁Ludowe	-10.5762
▁wkrótce	-10.5767
▁poniosła	-10.5771
▁pozytywne	-10.5771
▁zdrowotne	-10.5774
▁wykonywanie	-10.5775
▁skierowany	-10.5779
▁sportowych	-10.5781
▁usprawni	-10.579
MP	-10.5791
czesne	-10.5791
▁przechowywan	-10.5791
▁Ubezpieczeń	-10.5791
▁Twoje	-10.5795
BA	-10.5798
▁będących	-10.5798
▁Związek	-10.5802
▁Głównym	-10.5802
▁kopalni	-10.5804
▁społeczno	-10.5808
▁konferencji	-10.5813
▁wspomaga	-10.5813
▁1942	-10.5813
▁ekran	-10.5813
▁służyć	-10.5814
▁dokumentacji	-10.5818
▁1986	-10.5823
▁subwencji	-10.5824
▁ministrem	-10.5824
▁lekko	-10.5828
▁spadł	-10.5828
▁you	-10.5836
▁inwestycyjnych	-10.5842
▁1981	-10.5845
▁1983	-10.5846
▁wykup	-10.5848
różnorodn	-10.5848
▁południe	-10.5859
▁NIK	-10.5859
▁służbę	-10.5862
▁wcale	-10.5868
▁staż	-10.5868
▁Samorząd	-10.587
▁własną	-10.587
▁ściśle	-10.587
▁wprost	-10.5874
▁członek	-10.5882
▁wymiany	-10.5882
▁głosować	-10.5893
▁przychodów	-10.5893
▁sześć	-10.5894
kształt	-10.5896
czegó	-10.5898
▁siedem	-10.5898
▁fan	-10.5899
▁Konstytucyjn	-10.5901
▁Młod	-10.5904
▁najbliższ	-10.5906
▁Tro	-10.5907
▁smak	-10.5912
▁unijnych	-10.5916
▁dzwon	-10.5916
ologia	-10.5924
ryjski	-10.5926
▁prośbą	-10.5928
▁wschodniej	-10.5928
▁zasadnicze	-10.5933
▁wskazane	-10.5939
▁emerytalny	-10.5941
▁kandydatów	-10.5944
▁Nic	-10.5944
▁swej	-10.5946
▁pośrednictwem	-10.5951
otwor	-10.5951
▁1941	-10.5951
▁zdolności	-10.5951
▁wszelkich	-10.5951
MO	-10.5955
▁Zatem	-10.5956
▁udzielania	-10.596
▁Dar	-10.5962
▁bierze	-10.5965
▁chwilą	-10.5966
▁widok	-10.5967
▁przekazany	-10.5968
▁Londynie	-10.5974
▁będące	-10.5984
▁powinni	-10.5985
▁Wtedy	-10.5986
MS	-10.5988
▁połączenie	-10.5993
NIE	-10.5993
▁walce	-10.5993
▁Kro	-10.5996
▁naukowe	-10.5997
▁nowoczesne	-10.5998
▁regionalnych	-10.6002
▁przywilej	-10.6009
▁Anglii	-10.6009
▁należności	-10.6009
▁budowlanych	-10.6009
▁świadomość	-10.6011
owską	-10.6016
ografii	-10.602
▁zewnętrzny	-10.602
▁burmistrz	-10.602
▁1946	-10.6021
▁1919	-10.6021
▁chorób	-10.6021
▁przyrody	-10.6022
4%	-10.6028
▁poprawę	-10.6033
▁południowej	-10.6034
spad	-10.6036
▁komitet	-10.6044
▁rozkład	-10.6044
▁kryteriów	-10.6055
▁ośrodków	-10.6055
▁technicznych	-10.6056
▁nastąpiło	-10.6059
▁leczenie	-10.6062
▁serca	-10.6063
▁zagadnienia	-10.6067
▁związek	-10.6068
▁1975	-10.607
jczyk	-10.607
▁Dzieci	-10.6071
▁Hand	-10.6073
▁posłowi	-10.6075
▁działał	-10.6077
▁egzemplarz	-10.6079
▁specyfik	-10.6079
▁Ogóln	-10.6079
▁przod	-10.6079
▁online	-10.6079
fit	-10.6081
▁wyższych	-10.6082
▁absolwent	-10.609
▁festiwal	-10.609
▁sprawozdaniu	-10.609
▁odpowiedzieć	-10.6091
▁targ	-10.6093
▁rezultat	-10.6102
▁istnienia	-10.6102
▁zakończenia	-10.6103
▁podatki	-10.6107
▁kształcie	-10.6114
▁związana	-10.6114
▁fla	-10.6124
▁Izrael	-10.6125
▁cała	-10.6129
▁szkołę	-10.6131
▁biały	-10.6133
▁złoty	-10.6138
▁lig	-10.6141
▁elektrycznej	-10.6148
▁podejmowane	-10.6149
▁wiedzę	-10.6149
▁skorzystać	-10.6152
kryte	-10.6159
▁1948	-10.6162
▁spadek	-10.6163
▁możliwy	-10.6173
▁przygotowane	-10.6173
wniosk	-10.6173
stawienie	-10.6173
▁istniejące	-10.6177
▁regulacje	-10.6184
▁podręcznik	-10.6184
▁mieszkaniowych	-10.6185
▁szw	-10.6194
▁strategii	-10.6194
unku	-10.6197
▁Róż	-10.6201
▁niższe	-10.6201
▁przeprowadzenie	-10.6203
▁realizacja	-10.6207
▁wyjątkiem	-10.6208
▁należałoby	-10.621
▁komunikacyjn	-10.6221
▁uwzględnieniem	-10.6224
▁przedsiębiorcy	-10.6232
▁pełno	-10.6232
▁bazie	-10.6234
▁powietrza	-10.6245
▁wzdłuż	-10.6246
▁katedr	-10.6247
▁pokoju	-10.6248
▁prowadzące	-10.625
▁północnej	-10.6254
▁interpelację	-10.6256
▁prawidłowe	-10.6256
▁ciąży	-10.6257
▁własny	-10.6262
łączeniu	-10.6264
▁sąsiad	-10.6276
LA	-10.6279
▁dyskusję	-10.628
▁walut	-10.6284
▁rozliczeni	-10.6286
▁Grzegorz	-10.6291
▁funkcjonuje	-10.6291
▁musieli	-10.6297
▁znowu	-10.6298
▁Mistrz	-10.6302
▁wziął	-10.6304
▁ochot	-10.6308
▁wielkim	-10.6314
▁Stanach	-10.6318
prawdziw	-10.6327
▁środka	-10.6335
▁Królestw	-10.6342
▁ekspres	-10.6349
▁podjęte	-10.6352
▁odbiera	-10.6354
▁Infrastruktury	-10.6363
▁gimnazjum	-10.6363
▁przewidziany	-10.6363
▁kolejowej	-10.6368
▁Leż	-10.6372
EC	-10.6373
▁założyciel	-10.6376
▁zwalczani	-10.6376
▁Prus	-10.6376
vel	-10.6379
▁śmierć	-10.6388
▁Witam	-10.639
ręż	-10.6394
6%	-10.6395
▁misji	-10.6399
▁pełną	-10.64
▁zawodowe	-10.6403
▁pozostają	-10.6405
ydów	-10.6411
▁barier	-10.6419
▁rzad	-10.642
▁1973	-10.6422
▁Mer	-10.6423
ódź	-10.6428
▁zewnętrzne	-10.6436
▁odnieść	-10.6437
▁cztero	-10.6438
▁Grand	-10.6443
▁efekcie	-10.6448
▁komendant	-10.6448
▁Solidarn	-10.6448
▁osiem	-10.6449
▁podatkowego	-10.645
▁trudny	-10.6458
▁1976	-10.6459
wiązania	-10.646
▁Zielon	-10.6465
▁Akt	-10.6468
▁Europejska	-10.6472
▁posłanek	-10.6475
▁Ukrainy	-10.6485
▁ból	-10.6488
▁woda	-10.6488
▁wychowania	-10.649
▁Jakub	-10.6497
bierz	-10.6498
▁instalacji	-10.6503
▁kolegi	-10.6507
▁Szwajcar	-10.6509
▁Wspólnot	-10.6509
▁zaczęła	-10.651
▁tworzą	-10.6512
▁wymagań	-10.6515
▁car	-10.6516
TO	-10.6517
wrót	-10.652
▁koncepcji	-10.6521
▁XVII	-10.6522
▁pozyskan	-10.6522
▁Hiszpanii	-10.6524
▁Europejski	-10.6526
▁rzędu	-10.6527
▁przeszłości	-10.6534
▁Paul	-10.6542
▁kryterium	-10.6546
▁akurat	-10.6546
▁odczyt	-10.6547
▁zapowiedzi	-10.6552
▁Azji	-10.6555
▁komunikacji	-10.6558
▁dysponuje	-10.6558
▁poparcie	-10.6558
▁muzyczny	-10.6561
▁powieści	-10.6569
▁Ludwik	-10.6572
▁słów	-10.6573
▁wykonawczy	-10.6579
▁cierpi	-10.6579
▁Ukończył	-10.6583
▁głęboki	-10.6583
▁dobrą	-10.6585
▁rodzice	-10.6587
▁prywatnych	-10.6592
▁brąz	-10.6596
▁wydatkow	-10.6597
▁dotyczącą	-10.6599
przewodniczącego	-10.6601
▁University	-10.6607
▁salon	-10.6608
▁krajowej	-10.6613
▁moich	-10.6614
▁Znajduje	-10.6615
▁akces	-10.6615
▁najbliższym	-10.6619
▁jednoznacznie	-10.662
▁odbędzie	-10.662
▁zdarza	-10.6621
▁zgłoszony	-10.6624
▁prędkości	-10.6632
▁zapewne	-10.6632
8%	-10.6633
▁znaczący	-10.6645
▁Super	-10.6653
▁zespole	-10.6657
▁osobisty	-10.6662
▁kamer	-10.6665
▁użytkowania	-10.6665
▁50%	-10.6665
▁obrębie	-10.6669
▁prognoz	-10.6669
▁dostrzega	-10.6669
▁zapomni	-10.6676
▁rozpoczęto	-10.6682
▁wywalczył	-10.6682
▁świadectw	-10.6682
▁komentarz	-10.6682
▁Nawet	-10.6682
kończone	-10.6685
▁licząc	-10.6686
▁przymus	-10.6687
▁ośrodki	-10.6687
▁naucz	-10.6688
▁Wielkopolski	-10.6694
▁przysługuje	-10.6694
▁Północ	-10.6698
▁kontr	-10.67
▁użyte	-10.6705
▁całkowite	-10.6706
▁drogowego	-10.6706
▁dystans	-10.6707
jeździe	-10.6707
▁klęsk	-10.671
▁Peter	-10.6711
▁ważna	-10.6713
▁szczegółowych	-10.6718
▁utworzenia	-10.6719
▁orzeczenia	-10.6719
▁podstawowym	-10.6728
▁reprezentant	-10.6732
▁jedyny	-10.6736
▁wojewódzki	-10.6738
▁Ligi	-10.674
▁założeń	-10.6744
▁opiekun	-10.6744
▁1956	-10.6744
▁istniejących	-10.6747
▁Maciej	-10.6749
▁klin	-10.6756
▁dowództw	-10.6756
▁proponowane	-10.6761
▁przeznaczenie	-10.6767
▁członkowskich	-10.6769
▁Col	-10.6775
▁środkami	-10.6779
▁księcia	-10.6782
▁krajowego	-10.6785
siadł	-10.6786
▁modernizacji	-10.6789
▁pomóc	-10.6794
▁kilkanaście	-10.6794
▁reżyser	-10.6807
▁robót	-10.6807
▁sekund	-10.6807
▁Plac	-10.6807
▁postępowań	-10.6808
▁ambasador	-10.6816
▁historię	-10.6819
▁nowelizacja	-10.6832
▁szczęście	-10.6832
▁prąd	-10.6838
▁Książ	-10.6844
▁gatunki	-10.6844
▁otwarte	-10.6845
▁liber	-10.6848
▁diet	-10.6849
▁ewentualny	-10.6857
▁spotkał	-10.6858
▁niewiele	-10.6858
▁sformułowan	-10.687
▁własność	-10.687
▁front	-10.687
łożono	-10.687
miejsc	-10.6874
▁zastanawia	-10.6882
▁wariant	-10.6883
▁złożenia	-10.6883
▁zgodę	-10.6884
▁lotniczy	-10.6888
▁statyst	-10.689
▁niemieckiej	-10.6896
grał	-10.691
▁1970	-10.691
▁gleb	-10.6918
kazano	-10.6919
wołuje	-10.692
▁Organ	-10.692
▁negocjacji	-10.6921
▁przeniósł	-10.6922
torium	-10.6923
szczep	-10.6924
▁inwestycyjne	-10.6925
▁wykonując	-10.6925
▁dołącz	-10.6933
▁przewidywan	-10.6934
▁brakuje	-10.694
▁powtórz	-10.6946
▁niemieckich	-10.6948
▁Paweł	-10.6959
▁stracił	-10.696
▁FC	-10.6974
stawić	-10.6982
▁Chrystus	-10.6984
▁samochodu	-10.6984
Gospodar	-10.6991
▁fazie	-10.6994
MI	-10.6996
▁zachodniej	-10.6998
▁obecności	-10.6999
▁samochód	-10.7
▁Parlament	-10.701
żan	-10.7016
ogól	-10.7019
▁Południowej	-10.7023
▁przejścia	-10.7024
▁słabo	-10.7024
dydakty	-10.7025
CE	-10.7029
▁wystąpieniu	-10.703
▁świadom	-10.7031
▁dwoma	-10.7036
▁osobiście	-10.7036
▁żadnym	-10.7036
▁Bogu	-10.7037
chodzenie	-10.7042
▁wytwórni	-10.7042
▁traktowani	-10.7048
▁ewentualnie	-10.7049
▁komisje	-10.7049
▁sporo	-10.7053
▁północno	-10.7053
▁100%	-10.7055
▁Pomoc	-10.7058
▁geo	-10.7064
▁położona	-10.7075
▁brzmieniu	-10.7081
ńczyk	-10.7084
▁chłod	-10.7087
▁wyróżnia	-10.7093
▁mechanic	-10.7094
▁wiejskich	-10.7101
▁Matki	-10.7108
▁Przepisy	-10.7114
▁okolicach	-10.7116
fil	-10.712
AL	-10.7123
▁1974	-10.7125
▁Pełn	-10.7132
klej	-10.7133
▁zwierzę	-10.7138
▁Ostatecznie	-10.7139
▁niewątpliwie	-10.7139
▁zbrodni	-10.714
▁Wysp	-10.7144
▁1928	-10.715
▁przegrał	-10.7151
▁1921	-10.7152
▁zachęca	-10.7152
▁handlowych	-10.7153
▁term	-10.7153
▁ocena	-10.7155
▁substancji	-10.7165
▁obwodnic	-10.7165
▁usytuowa	-10.7165
▁Rejon	-10.7166
▁Krakowa	-10.7169
▁konkretnych	-10.7176
▁Zdaniem	-10.7179
▁zatrudnienie	-10.7183
tywny	-10.7185
▁Ameryki	-10.7192
▁niskie	-10.7193
▁rokiem	-10.7199
▁Bri	-10.7204
▁przeznaczona	-10.7205
▁1,5	-10.7208
▁trasy	-10.7208
▁związki	-10.7213
▁dodatkowy	-10.7214
▁przysługują	-10.7218
▁Istot	-10.722
▁finale	-10.7221
▁Ryszard	-10.7231
▁przewidziane	-10.7231
▁rzadko	-10.7236
▁dziennikarz	-10.724
▁zapłaci	-10.7243
▁Biorąc	-10.7244
▁tradycji	-10.7244
▁Pracowni	-10.7244
▁liczył	-10.7247
▁Trzy	-10.725
▁1968	-10.7257
▁Dopiero	-10.7257
▁Kilka	-10.7257
▁dziećmi	-10.7258
▁narodowego	-10.7259
▁Jeden	-10.7263
▁Krajowego	-10.727
▁Wszyscy	-10.727
▁dyskusja	-10.727
▁branż	-10.7274
▁demon	-10.7287
▁Komisje	-10.7297
▁reprezentował	-10.7297
▁opracowania	-10.7297
▁1954	-10.7297
pisania	-10.7305
▁postanowienia	-10.731
▁kościele	-10.731
▁przekazanie	-10.7319
2012	-10.732
▁ekspertów	-10.7323
▁Olsztyn	-10.7323
▁sferze	-10.7323
▁rundzie	-10.7323
▁widzę	-10.7323
ariat	-10.7325
▁osobiste	-10.7326
▁uczestnik	-10.7336
▁ograniczy	-10.7337
wiązane	-10.7339
▁przekazał	-10.7339
chodzenia	-10.7345
▁1978	-10.7349
▁potencjalny	-10.7363
▁Niemniej	-10.7363
▁przekonaniu	-10.7369
▁zamian	-10.7376
▁łącząc	-10.7378
▁węgl	-10.7379
▁zarejestrowan	-10.7379
▁rozmów	-10.738
▁motor	-10.7383
▁bieżącym	-10.739
▁uzdrowisk	-10.739
▁otwiera	-10.739
▁Edward	-10.739
▁piersi	-10.7398
▁fabryk	-10.7404
▁Fundacj	-10.7404
▁głosowanie	-10.7408
pływają	-10.7409
▁Młodzież	-10.7416
▁minimalne	-10.7421
▁wziąć	-10.743
▁przedstawienie	-10.7443
▁odgrywa	-10.7445
▁złote	-10.7447
▁plus	-10.7448
▁ołtarz	-10.7457
▁książek	-10.7467
▁kierował	-10.7473
▁świadczą	-10.748
▁wójt	-10.7481
▁wyborczy	-10.749
▁awansował	-10.7496
▁1947	-10.7496
▁budowie	-10.7498
▁zobaczyć	-10.7498
▁zanim	-10.7499
▁przybył	-10.75
▁zdanie	-10.751
▁południowo	-10.751
▁PSL	-10.7511
▁stolicy	-10.7511
▁rozwiązywa	-10.7512
▁szerokie	-10.7517
włok	-10.752
budowę	-10.7523
dystrybu	-10.7524
▁stosunków	-10.7538
▁prawidłowo	-10.7538
▁towarzystw	-10.7538
▁ogólne	-10.754
▁patron	-10.7548
▁emisji	-10.7551
▁minimum	-10.7551
międzynarodowych	-10.7556
pisana	-10.7562
▁diecezji	-10.7565
▁Trój	-10.7565
▁Wysoki	-10.7575
▁początek	-10.7578
▁błąd	-10.7581
▁historyczne	-10.7588
▁Tri	-10.7599
▁oferowan	-10.76
▁obiektyw	-10.7601
▁prowincji	-10.7605
▁orzeka	-10.7611
▁rozpoczęcie	-10.7619
▁William	-10.7619
▁Tutaj	-10.7619
▁kodeks	-10.7621
▁Człon	-10.7625
▁tramwaj	-10.7633
▁efektywności	-10.7633
▁wprowadzając	-10.7634
▁następnych	-10.7635
▁generalnego	-10.7637
▁zmierzające	-10.7643
▁zdania	-10.7645
▁ostateczne	-10.7646
▁naruszenie	-10.7647
▁korpus	-10.7647
▁skazany	-10.7649
▁1979	-10.7657
▁stworzyć	-10.766
▁bilans	-10.766
▁Ryb	-10.7665
▁aktualne	-10.7667
▁piłkarski	-10.7674
▁obniżenie	-10.7674
▁tzn	-10.7674
odawcy	-10.7684
▁budynki	-10.7688
▁tamtej	-10.7688
▁wykonuje	-10.7693
▁dyplomatyczn	-10.7694
▁wydarzeń	-10.7701
▁następnym	-10.7703
▁1938	-10.7704
▁elektrowni	-10.7704
▁funkcjonariusz	-10.7706
acyjno	-10.7712
▁przekazane	-10.7713
▁opozycji	-10.7715
▁rozgrywek	-10.7715
▁zobowiązany	-10.7715
▁wskutek	-10.7715
▁drogo	-10.7717
▁Zjednoczon	-10.7718
▁pisma	-10.7719
▁eksploatacji	-10.7729
▁ubiegłym	-10.7729
▁wymogów	-10.7729
▁powrocie	-10.7729
▁montaż	-10.7729
▁morskie	-10.7731
9%	-10.7738
▁świadczeniodawc	-10.7743
▁uzyskiwan	-10.7743
▁skierował	-10.7743
kończony	-10.776
▁konstytucyjne	-10.7763
▁najbliższych	-10.777
▁asystent	-10.777
▁wyprodukowa	-10.777
▁Filip	-10.7786
▁ściga	-10.7787
▁dłuższy	-10.7789
▁dosyć	-10.7789
▁wynagrodzenie	-10.7798
▁zamyka	-10.7803
▁nazwie	-10.7807
▁kopi	-10.7809
▁gatunku	-10.7812
świat	-10.7813
▁lotnicze	-10.7816
▁częst	-10.7816
▁utworzenie	-10.7826
▁uzasadnieniu	-10.7826
▁wysyła	-10.7828
ologicznych	-10.7828
▁tru	-10.7837
▁oparte	-10.7839
▁Wszystko	-10.784
▁względów	-10.784
trzymywał	-10.784
▁dofinansowania	-10.784
▁kibic	-10.7843
▁Sojusz	-10.7846
▁Gospodarcz	-10.7861
OL	-10.7862
czesny	-10.7865
▁Niektóre	-10.7868
▁srebrny	-10.7868
▁Szkoła	-10.7868
▁aptek	-10.7869
▁podejmie	-10.7869
LI	-10.787
▁edycji	-10.7882
▁senator	-10.7882
▁przejm	-10.7883
▁jo	-10.7885
▁stosować	-10.7887
▁wiersz	-10.7894
▁doktor	-10.7894
▁domowych	-10.7894
▁wyposażenie	-10.7896
▁Grupa	-10.7903
▁Gen	-10.7906
▁większa	-10.791
▁Koszt	-10.7911
▁unijne	-10.7911
▁Akademi	-10.7919
▁wnioskodawców	-10.7924
▁merytoryczne	-10.7938
▁przyjaciół	-10.7938
▁wielkość	-10.7943
▁silnie	-10.7959
▁wychowan	-10.7962
▁Szwecji	-10.7966
▁Naczeln	-10.7967
▁czytaniu	-10.7971
▁Biura	-10.7972
▁sądzę	-10.7974
stawiony	-10.7975
▁Bezpieczeństwa	-10.798
▁zwierzęta	-10.7984
▁krakowski	-10.7994
▁Austrii	-10.7995
▁opracowanie	-10.7996
▁1960	-10.8
▁kurator	-10.8004
▁obowiązuje	-10.8009
▁dowódcy	-10.8009
▁strasz	-10.8017
▁zamieszkania	-10.8023
▁platform	-10.8023
▁uregulowania	-10.8023
▁wielką	-10.8024
▁mediów	-10.8024
▁urzędy	-10.8024
▁mieliśmy	-10.8026
▁pokazuje	-10.8029
▁Trzeci	-10.8029
▁prawdziwe	-10.8031
▁obejrz	-10.8034
▁rozporządzeniu	-10.8037
▁ukończeniu	-10.8037
▁pomieszczenia	-10.8037
▁Kielc	-10.8043
▁zawodnikiem	-10.8044
▁prawdą	-10.8045
▁okazuje	-10.8045
▁nerw	-10.8051
▁kalendarz	-10.8052
▁Wysoką	-10.8052
▁zdjęć	-10.8052
▁powołania	-10.8052
▁podatkowy	-10.8067
▁Straż	-10.8068
▁sprawozdawca	-10.8073
▁ponowne	-10.8077
▁określić	-10.8086
▁zaproponował	-10.8094
▁obejmował	-10.8094
SI	-10.8103
▁interpretacji	-10.8104
▁przeczyta	-10.8109
▁Dotyczy	-10.8109
▁długość	-10.811
▁generalny	-10.8114
jechać	-10.8115
▁zostawi	-10.8117
▁Japonii	-10.8123
▁konwencji	-10.8123
▁niemieckiego	-10.8124
PL	-10.8126
▁gospodarczym	-10.8127
▁stworzenia	-10.8137
▁treść	-10.8137
▁zamówień	-10.8138
▁japoński	-10.8141
▁zachował	-10.8142
▁1936	-10.8147
▁psycho	-10.8152
▁dotąd	-10.8153
▁pozytywny	-10.816
▁Marian	-10.8164
▁Konstytucji	-10.8166
▁bieżąco	-10.8166
▁drewna	-10.8166
▁młody	-10.8167
▁organizację	-10.817
▁martw	-10.8175
▁wokal	-10.8176
▁wezwan	-10.8179
franc	-10.818
▁uroczystości	-10.8181
▁użyciu	-10.8181
▁wzrasta	-10.8182
histor	-10.8184
▁kwas	-10.8184
rent	-10.8186
▁wstępie	-10.8187
słoneczn	-10.8192
▁piechoty	-10.8195
▁upadłości	-10.8195
▁szóst	-10.8195
▁muzyczne	-10.8197
▁Publiczn	-10.8199
▁wykonany	-10.8201
▁następujący	-10.8205
zwyczaj	-10.821
▁zdrowie	-10.821
▁Więc	-10.8216
religijn	-10.822
▁dotycząca	-10.8221
▁wyposażenia	-10.8224
▁nocleg	-10.8227
▁przekazania	-10.8229
▁geograf	-10.8231
▁znaczeniu	-10.8233
▁decyzją	-10.8239
▁wyjątkowo	-10.8239
▁senior	-10.8239
▁mózg	-10.8239
▁wydawnictw	-10.8244
▁zabiera	-10.8246
▁Północnej	-10.8248
▁dzierżaw	-10.8253
▁podsekretarz	-10.8253
▁Decyzj	-10.8253
▁wiążą	-10.8255
FI	-10.8266
▁Druga	-10.8268
▁przeszkod	-10.827
▁oddziaływania	-10.8271
▁statystyk	-10.8274
▁opodatk	-10.8276
spor	-10.8278
strzeże	-10.8278
▁jasne	-10.8281
▁luk	-10.8281
hen	-10.8282
▁kompetencje	-10.8282
▁zewnątrz	-10.8282
▁publikacji	-10.8282
▁ustalono	-10.8282
▁wyznacza	-10.8282
▁zespołem	-10.8297
▁World	-10.8297
▁posłom	-10.8298
▁policji	-10.8298
▁Komuni	-10.8309
▁1934	-10.8314
▁zaznacz	-10.8316
▁wszech	-10.8324
▁zgodności	-10.8326
▁farm	-10.8334
▁spojrz	-10.8342
▁powstają	-10.8343
OZ	-10.8351
▁Białorusi	-10.8355
▁sześciu	-10.8355
▁ekonomicznych	-10.8358
▁1952	-10.8369
▁Zagranicznych	-10.837
▁Ciebie	-10.837
▁skutku	-10.837
▁ogłosił	-10.837
▁Strzel	-10.8376
▁1967	-10.8384
▁zamach	-10.8385
▁wiedział	-10.8386
▁specjalistów	-10.839
▁zbada	-10.8393
▁1922	-10.8397
▁muzeum	-10.84
▁pragnie	-10.84
▁pięcio	-10.8401
▁Komitet	-10.841
rzuceni	-10.8414
▁Szpital	-10.8414
▁zrozumiał	-10.8414
▁dialog	-10.8416
▁weszła	-10.8418
▁używany	-10.8429
▁ciężko	-10.8429
▁uczestnictw	-10.8429
▁Paryżu	-10.8429
▁pewną	-10.8444
▁uzbrojeni	-10.8459
▁Meksyk	-10.8459
▁rozgrywkach	-10.8474
▁Dotychczas	-10.8474
▁samodzielnie	-10.8489
▁źródłem	-10.8489
▁interwencji	-10.8489
▁przetwarza	-10.8489
gałęzi	-10.8491
▁1977	-10.8502
▁akademicki	-10.8503
▁niepodległości	-10.8504
▁aktualny	-10.8511
▁grecki	-10.8513
▁Rosjan	-10.8515
▁kin	-10.8515
▁podejmowania	-10.8518
▁gabinet	-10.8518
▁Zygmunt	-10.8533
▁przeznaczony	-10.8536
▁zamknięty	-10.8548
▁współczesne	-10.8551
▁żadne	-10.8553
▁referendum	-10.8563
▁uzasadnione	-10.8563
▁zamieszkał	-10.8563
▁komfort	-10.8563
▁ważną	-10.8566
▁gitar	-10.8568
▁wspomniane	-10.857
▁Węgr	-10.857
▁zapewniając	-10.8576
▁dyskrymin	-10.8578
▁wzmacnia	-10.8578
▁Liczba	-10.8578
▁utworów	-10.8578
▁przyszłość	-10.8578
▁Korpus	-10.8578
▁edukacyjny	-10.8579
▁całość	-10.8581
▁kilkunastu	-10.8593
▁specyficzn	-10.8593
▁wyeliminowan	-10.8593
▁rośnie	-10.8594
▁with	-10.8595
▁uwarunkowan	-10.8608
▁Świętego	-10.8608
▁zasiłku	-10.8609
▁Mazowiecki	-10.8624
▁uniwersytet	-10.8624
▁proboszcz	-10.8624
▁mięśni	-10.8627
▁podwójne	-10.8632
ukasz	-10.8633
▁legend	-10.8633
▁telekomunikac	-10.8639
▁podkomisji	-10.8639
▁chętnie	-10.8639
▁sekcj	-10.864
▁dwudziest	-10.864
▁1964	-10.864
▁Agencja	-10.864
▁odwiedza	-10.8654
▁wyraził	-10.8669
▁szczegółowo	-10.8669
▁odsetek	-10.8669
▁pieniężne	-10.8684
▁koalicji	-10.8684
stawił	-10.8695
▁Piechoty	-10.8699
nictwem	-10.87
średni	-10.8702
▁lamp	-10.8703
▁ambasad	-10.8703
klasyfikowa	-10.8705
▁sztab	-10.8707
▁gwarancji	-10.8715
▁umieszcza	-10.8715
▁wiedzieć	-10.8715
▁braci	-10.8724
▁Wkrótce	-10.873
▁Średni	-10.873
▁Długo	-10.8735
▁Zmiany	-10.8745
▁samochodowy	-10.8746
▁1949	-10.8746
▁nagrodę	-10.8746
▁Sprzeda	-10.875
▁przyrodni	-10.876
▁domaga	-10.8763
▁Grupy	-10.8763
▁stworzył	-10.8765
▁królewski	-10.8768
▁płaszcz	-10.8769
▁okazję	-10.8774
▁zmniejszenia	-10.8776
▁osiągnąć	-10.8776
▁zdarzenia	-10.8776
▁XV	-10.8779
jprawdopodobniej	-10.8791
▁wyczerpa	-10.8791
▁zgłoszone	-10.8791
rzucił	-10.8792
noszone	-10.8801
▁olbrzymi	-10.8806
▁Bułgar	-10.8806
▁lokalizacji	-10.8809
▁produkcję	-10.8822
▁produkcja	-10.8822
▁kapitan	-10.8822
▁tytoni	-10.8823
▁zmieniając	-10.883
▁pływa	-10.8851
▁poważnie	-10.8852
▁dziękuję	-10.8853
▁dochodowego	-10.8853
▁bitwie	-10.8853
godnie	-10.8855
▁ukraiński	-10.8856
▁straci	-10.8865
▁Niemców	-10.8869
▁Pewn	-10.8869
▁Znajd	-10.8872
▁Zapraszam	-10.8883
▁przyszłym	-10.8884
pisanie	-10.8898
▁certyfikat	-10.8899
▁PLN	-10.8899
▁uzasadnia	-10.8899
▁silne	-10.8899
▁przygotował	-10.8899
▁pozostawał	-10.89
▁przeznacza	-10.89
▁wyznani	-10.8904
▁wybrane	-10.8908
▁pokarm	-10.8909
późn	-10.8912
▁strzela	-10.8926
▁Aktualnie	-10.893
▁najwięcej	-10.893
▁dzieckiem	-10.893
▁bibli	-10.8944
▁Federacj	-10.8946
cierp	-10.8956
▁tarcz	-10.896
▁Festiwal	-10.8961
▁Występuje	-10.8961
▁środku	-10.8962
▁małym	-10.8972
obrońc	-10.8974
▁zamku	-10.8974
▁kierowców	-10.8977
▁relacje	-10.8977
▁rakiet	-10.8977
▁odwrot	-10.8977
▁decyduje	-10.8977
pisano	-10.899
▁sojusz	-10.8993
▁Kaczyński	-10.8997
dawanie	-10.9005
▁Afryki	-10.9008
▁PRL	-10.9008
▁ustalenie	-10.9009
▁przejść	-10.901
▁Pyta	-10.9017
▁dokonuje	-10.9019
▁ówczesny	-10.9025
▁populacji	-10.904
▁widział	-10.9043
▁pozytyw	-10.9045
minutowych	-10.9047
▁1969	-10.9053
▁1971	-10.9053
▁1966	-10.9054
▁pogłębi	-10.9055
▁łatwiej	-10.9055
▁dochodu	-10.9056
▁kolumn	-10.9057
▁mistrzem	-10.9058
większe	-10.906
▁silny	-10.9063
▁uwzględniając	-10.9064
▁osiągnął	-10.9071
▁kwocie	-10.9071
▁karabin	-10.9071
▁Obszar	-10.9074
▁rehabilitacji	-10.9076
▁Instytucie	-10.9087
▁przedsięwzięć	-10.9087
▁przyjaciel	-10.9087
noszę	-10.909
▁oparty	-10.9096
▁beneficjent	-10.9103
▁NATO	-10.9103
▁uczniowie	-10.9103
▁śpiewa	-10.9103
▁terror	-10.9119
▁odcinek	-10.9119
▁idąc	-10.9119
▁przemocy	-10.9119
▁eksperyment	-10.9134
▁przewoźnik	-10.9134
▁Olimpijskich	-10.9134
▁ograniczone	-10.9134
▁otrzymują	-10.9135
▁weszły	-10.9136
▁korekt	-10.9141
▁rozkaz	-10.9142
▁Towarzystw	-10.9145
▁funkcjonował	-10.915
▁jednolite	-10.9153
▁piękne	-10.9153
▁blog	-10.916
▁giełd	-10.9167
▁rzymski	-10.9169
▁informatyczn	-10.9174
▁komunikat	-10.9177
▁cząst	-10.9184
▁dziedzic	-10.9185
▁przedszkola	-10.9186
▁oblicze	-10.9196
▁Holandii	-10.9198
▁pozyskiwan	-10.9198
▁zadba	-10.9201
▁dóbr	-10.9214
▁konsekwencje	-10.9214
▁Rozumiem	-10.9214
▁Trudno	-10.9214
▁Proces	-10.9217
▁1937	-10.9217
▁towarzyszą	-10.923
hol	-10.9231
▁ówczesne	-10.9232
▁ocenę	-10.9233
▁zespoły	-10.9247
▁materii	-10.9247
▁Uniwersytet	-10.9249
▁turystyczne	-10.9253
▁śledztw	-10.9262
▁Dyrektor	-10.9262
▁podkreśl	-10.9269
▁ukrywa	-10.927
pełnosprawności	-10.9278
▁dorosłych	-10.9278
▁teorii	-10.9279
▁Narodów	-10.9279
▁fałsz	-10.9288
▁ewangeli	-10.9295
▁gruncie	-10.9295
▁nakładów	-10.9302
demokrat	-10.931
▁Dąbrow	-10.9311
▁Pamięta	-10.9311
czkow	-10.9314
▁studiował	-10.9315
▁ograniczony	-10.9327
▁pielęgnacyjn	-10.9327
oficjalny	-10.9327
▁kierując	-10.9339
▁Flor	-10.9341
▁osłabi	-10.9343
▁powoływan	-10.9344
▁jedyne	-10.9358
▁instytut	-10.9359
▁Biuro	-10.9364
▁hiszpański	-10.9376
▁krajobraz	-10.9376
▁spędził	-10.9376
▁global	-10.9376
▁narodu	-10.9386
▁wojewody	-10.9392
▁historia	-10.9392
▁orient	-10.9392
▁1965	-10.9395
wyższą	-10.9403
▁pisarz	-10.9408
▁pojedyncze	-10.9408
▁uzasadnienie	-10.9408
▁wyodrębni	-10.9408
▁parlamentarnych	-10.9408
▁podejście	-10.9409
▁wodnych	-10.9419
▁doświadczeń	-10.9425
▁równocześnie	-10.9425
▁względzie	-10.9425
▁zezwolenia	-10.9425
▁ochroną	-10.9425
▁całkiem	-10.9425
▁serwer	-10.9434
▁spadku	-10.9441
▁Analiz	-10.9443
rządzenia	-10.9446
wodny	-10.945
▁arcybiskup	-10.9457
▁drogowym	-10.9458
▁czerwony	-10.9459
▁okoliczn	-10.9462
▁formalny	-10.9474
▁pełnomocnik	-10.9474
▁Jezior	-10.9474
▁mundur	-10.9474
▁stwierdzenie	-10.9474
▁ofercie	-10.9475
▁transfer	-10.9482
▁energetyczny	-10.9495
▁przejaw	-10.9496
▁Radziecki	-10.9498
▁niektórzy	-10.9507
▁korzystając	-10.9508
▁osiedla	-10.9509
▁Istnieje	-10.9523
▁diagnosty	-10.9523
▁dzisiejszego	-10.9523
▁rolnicy	-10.9523
▁Rosyjski	-10.9523
▁Christ	-10.9524
▁samodzielne	-10.9525
kończenie	-10.953
▁oficjalnie	-10.954
▁Cmentarz	-10.954
▁wnioskodawca	-10.954
▁obecność	-10.954
▁pochowany	-10.9543
▁XIV	-10.9556
▁telewizyjny	-10.9556
▁warzyw	-10.9561
karpacki	-10.9565
▁ochrona	-10.9573
▁kilkadziesiąt	-10.9579
▁posiłk	-10.9579
yzacja	-10.958
▁młodzi	-10.9585
▁publiczno	-10.9588
▁Powyższe	-10.9589
▁zgłoszono	-10.9589
▁tabeli	-10.959
lizuje	-10.9605
▁pojedynk	-10.9606
▁dodatku	-10.9606
▁opiekę	-10.9607
miesięczne	-10.9607
▁zasiada	-10.9618
▁dłuższe	-10.9622
▁sporządza	-10.9623
▁wyznaczony	-10.9623
▁Siedzib	-10.9623
▁pojęcia	-10.9623
▁świadomości	-10.9636
▁parking	-10.9636
▁zajmują	-10.9639
▁udzielenia	-10.964
▁Brygad	-10.964
▁Tytuł	-10.9657
▁powołanie	-10.9659
niesiona	-10.966
▁pochodzących	-10.9661
▁żoną	-10.9665
▁aresztowany	-10.9667
▁student	-10.9668
▁strzelił	-10.9673
▁polscy	-10.9673
▁Toruń	-10.9677
▁wspomniany	-10.9684
▁ucznia	-10.9688
▁Przypominam	-10.969
▁Stowarzyszenia	-10.969
▁skuteczności	-10.969
▁terytorialny	-10.9691
▁darmowe	-10.9695
▁oświadczenie	-10.9707
▁Jorku	-10.9707
region	-10.9723
▁sytuacją	-10.9723
▁brutto	-10.9723
▁wystartował	-10.9723
▁główną	-10.9723
▁aplikacji	-10.9723
▁Stronnictw	-10.9727
▁przyjęta	-10.9741
▁studiu	-10.9747
▁Państwowy	-10.9756
▁rekompensat	-10.9757
▁stwierdzenia	-10.9757
▁polityce	-10.9757
▁zbliża	-10.9757
▁Podkreśl	-10.976
▁amator	-10.9761
▁chciałabym	-10.9774
▁każdą	-10.9774
▁roszczeń	-10.9774
▁czołg	-10.9783
▁rozlicza	-10.9783
▁deklaracji	-10.9791
▁korzystne	-10.9792
▁jutro	-10.9795
▁praktyczne	-10.9809
▁Tusk	-10.9821
▁Odpowiadając	-10.9825
▁rzeczywisty	-10.9825
▁reakcji	-10.9825
▁dziennik	-10.9831
▁Województw	-10.9842
▁szkolnictwa	-10.9842
austriacki	-10.9859
▁oczywiste	-10.9859
▁rozpoczęcia	-10.9859
▁Funkcj	-10.9859
▁obozu	-10.986
▁spowodować	-10.9876
▁rozstrzyga	-10.9878
▁Prokuratur	-10.9893
▁odsłon	-10.9905
▁drewniany	-10.991
▁udowodni	-10.991
▁skutkowa	-10.991
▁znacząco	-10.991
▁PLK	-10.9911
▁niekiedy	-10.9911
▁przyjęła	-10.9912
▁wieczyste	-10.9928
▁Głównego	-10.9928
▁europejskiej	-10.9928
▁piosenki	-10.9945
▁zwyciężył	-10.9945
▁odszkodowania	-10.9945
▁naruszenia	-10.9945
▁jesieni	-10.9946
▁publiczną	-10.9946
▁powstaje	-10.9947
▁kondycj	-10.9954
▁osłon	-10.9956
▁bezwzględnej	-10.9962
▁największą	-10.9962
▁Bolesław	-10.9962
▁wstrzyma	-10.9972
wrócenie	-10.9979
▁podziękować	-10.9979
▁stowarzyszenia	-10.9979
▁tydzień	-10.9979
▁sześcio	-10.9979
▁tradycyjny	-10.998
▁grzyb	-10.9981
▁świadczon	-10.9984
▁ciało	-10.9987
▁harmonogram	-10.9997
▁zwolennik	-10.9997
▁wbrew	-10.9997
▁poczucie	-10.9997
▁pełniąc	-11.0004
▁bezrobocie	-11.0014
▁ograniczeń	-11.0014
▁wicemistrz	-11.0014
▁Pracował	-11.0014
▁Ostrow	-11.0031
▁ciepła	-11.0031
▁otacza	-11.0033
▁koncern	-11.0034
wychowawczy	-11.0035
▁przewidują	-11.0041
▁zgromadzon	-11.0043
▁medycyny	-11.0049
▁strzał	-11.0051
▁podejmują	-11.0052
▁sąsiedni	-11.0066
▁Zobacz	-11.0067
▁zwykły	-11.0067
▁represj	-11.0067
▁krzywd	-11.0067
▁scenariusz	-11.0069
▁czerwone	-11.0069
▁Fakt	-11.0081
▁obniżenia	-11.0101
▁sprawdzić	-11.0101
▁biało	-11.0107
▁Dęb	-11.0111
▁Historia	-11.0119
▁inwestycja	-11.0119
▁rozstrzygnięcia	-11.0119
▁społeczną	-11.0119
▁zawarcia	-11.0119
tłumacz	-11.0123
▁odrębny	-11.0129
▁tłum	-11.0136
▁Nauczyciel	-11.0136
▁kierunek	-11.0136
▁potwierdził	-11.0136
▁zagrożeń	-11.0154
▁widoczne	-11.0154
▁współpraca	-11.0154
▁wysoką	-11.0154
▁dojazd	-11.0154
▁lewej	-11.0173
charakterystyczn	-11.0185
▁kompromis	-11.0189
▁niejednokrotnie	-11.0189
▁wojewoda	-11.0189
▁Chciał	-11.02
▁Departament	-11.0207
▁Dywizji	-11.0207
▁wyświetla	-11.0207
▁Najlepsz	-11.0207
▁2,5	-11.0211
▁Fryderyk	-11.0224
▁Kancelari	-11.0224
▁członkowskie	-11.0224
▁uniknąć	-11.0224
▁netto	-11.0224
▁debacie	-11.0225
▁sprawozdawcę	-11.0226
uzyskania	-11.0231
kredyt	-11.0231
▁transakcji	-11.0242
▁wprowadzeniu	-11.0242
▁Jesteśmy	-11.0242
▁Zwracam	-11.0243
▁Marszałk	-11.026
▁rozwiązać	-11.026
▁stabiliz	-11.0261
związkow	-11.027
▁punkcie	-11.0278
▁Wyższej	-11.0278
▁zastanowić	-11.0278
▁twierdzą	-11.0284
▁hrabi	-11.0286
▁tymczasowe	-11.0288
▁szkl	-11.0304
▁Spółki	-11.0313
▁Poczt	-11.0318
▁analogiczn	-11.0331
▁rolniczych	-11.0331
▁święta	-11.0331
▁opowiedział	-11.0349
▁Lwowie	-11.0349
▁czwarty	-11.035
▁Społeczn	-11.0357
2013	-11.0363
▁serdecznie	-11.0367
▁Wcześniej	-11.0367
▁Miejscowość	-11.0385
▁porozumienie	-11.0385
▁Spółka	-11.0385
▁Wiadomo	-11.0385
▁zaistniał	-11.0385
▁zdrowotn	-11.0402
▁ubiegłego	-11.0403
▁uczęszcza	-11.0403
▁postanowień	-11.0403
▁istocie	-11.0406
▁Chciałabym	-11.0421
▁błędów	-11.0423
▁przepraszam	-11.0439
▁zaufania	-11.0439
▁Zespołu	-11.0439
▁Jacek	-11.044
▁piękny	-11.0444
▁przestrzennego	-11.0457
▁sytuacje	-11.0457
▁umieszczony	-11.0457
▁ministrów	-11.0457
▁oprocentowan	-11.0457
▁kogoś	-11.0458
▁wzór	-11.0461
▁dawna	-11.0464
▁hydro	-11.0468
spożywczy	-11.0468
▁public	-11.0471
▁Hiszpan	-11.0471
▁ministerstw	-11.0474
dziesięcio	-11.0476
▁mieszczą	-11.0477
▁pobyt	-11.0478
▁kierowane	-11.0502
finansowy	-11.051
▁adwokat	-11.0512
▁weryfikacji	-11.0512
▁preparat	-11.0512
▁przygotować	-11.0512
▁Zdoby	-11.0513
▁męski	-11.0515
▁przetrwał	-11.0517
▁cywiliz	-11.0518
▁zawierający	-11.052
▁włók	-11.0521
▁oficjalne	-11.053
▁Wykonawc	-11.053
▁zgłoszenia	-11.053
▁recept	-11.053
▁zawarta	-11.0534
▁powołane	-11.0547
▁personel	-11.0548
▁osiągnięcie	-11.0548
▁PKB	-11.0548
bakter	-11.0551
▁elektroniczny	-11.0565
▁refleks	-11.0567
▁utworzono	-11.0567
▁biologiczn	-11.058
▁Posła	-11.0582
▁merytoryczny	-11.0585
▁konstytucyjny	-11.0599
▁Seniorów	-11.0603
▁Włoszech	-11.0603
▁zainteresowane	-11.0622
▁Moskwie	-11.0622
▁wniesienia	-11.0625
▁popyt	-11.0634
▁Główny	-11.0639
▁przystosowan	-11.0639
▁najszybciej	-11.064
▁przeciwieństwie	-11.064
▁przemyśle	-11.0651
▁terytoria	-11.0656
▁niepełnosprawne	-11.0659
▁wojewodów	-11.0659
▁United	-11.0659
▁USD	-11.0659
▁niebieski	-11.0665
▁Przypomnę	-11.0677
▁podporządkowan	-11.0677
▁niezależny	-11.0678
▁dodatek	-11.0678
▁Spotka	-11.0681
▁posiedzenie	-11.0696
▁Konkurs	-11.0696
▁mleka	-11.0698
▁Najbardziej	-11.0714
▁egzekucji	-11.0714
▁drogowych	-11.0715
referencyjn	-11.0715
▁kieruje	-11.0715
▁dłużnik	-11.072
▁Syr	-11.073
▁Portugal	-11.0733
▁uporządkow	-11.0733
▁wzrosła	-11.0733
▁przekazywania	-11.0733
▁postrzega	-11.0733
▁efektywne	-11.0744
▁Windows	-11.0752
▁przeciętne	-11.0752
▁mazowiecki	-11.0752
▁nabycia	-11.0754
▁odrębne	-11.0761
▁Piękn	-11.0766
▁Chociaż	-11.077
▁dowódca	-11.0772
▁puchar	-11.0774
▁zadłużenia	-11.0789
▁podjęto	-11.0789
▁rozpoczęły	-11.0808
▁rozszerza	-11.0808
▁zasadniczy	-11.0808
▁zabytkow	-11.0808
▁Konwencj	-11.0811
▁partia	-11.0814
▁zauważył	-11.0824
▁Gimnazjum	-11.0827
▁Powszechn	-11.0827
▁niemożliwe	-11.0827
▁szczeblu	-11.0827
▁poparcia	-11.0827
▁męża	-11.0827
▁towarzyski	-11.0829
▁orzeczenie	-11.0829
noszenie	-11.0837
▁Telewizji	-11.0846
▁David	-11.0846
▁facto	-11.0851
wiezion	-11.0855
▁rehabilit	-11.0859
▁gatunek	-11.0864
▁stosunek	-11.0864
▁przekazywane	-11.0864
▁czuł	-11.0875
▁komisję	-11.0883
▁sobotę	-11.0883
▁znakomit	-11.0883
▁Wiktor	-11.0883
▁upadku	-11.0883
▁Wówczas	-11.0884
▁przejście	-11.0885
▁rozpowszechni	-11.0902
▁siedzibę	-11.0905
▁wyrażon	-11.0915
▁niewystarczając	-11.0921
▁przygotowani	-11.0922
▁niedawno	-11.0922
▁znaczące	-11.0924
▁operacyjne	-11.0932
▁odzież	-11.0933
arabski	-11.0934
▁Franciszka	-11.094
▁Każda	-11.094
▁bezpieczne	-11.0942
▁obniża	-11.0943
▁Kobiet	-11.0944
▁religijne	-11.0946
ierzył	-11.0956
▁najmłodsz	-11.0959
▁stosunki	-11.0959
▁ogólnie	-11.0968
bierają	-11.0978
▁twórczości	-11.0978
▁skuteczny	-11.0978
▁tłuszcz	-11.0978
▁sporządzon	-11.0978
▁przerwy	-11.0979
▁obronie	-11.098
▁Rejestr	-11.0982
produkcyjny	-11.099
▁metropolit	-11.0997
▁Wilhelm	-11.0997
▁upowszechni	-11.0997
▁zajmowan	-11.1001
▁Ministerstw	-11.1011
unkowy	-11.1012
▁atmosfery	-11.1017
▁motocykl	-11.1017
▁upamiętni	-11.1017
▁Olimpi	-11.1017
▁rezultacie	-11.1017
▁skrzydła	-11.1017
▁stwierdzono	-11.1017
▁pojęcie	-11.1019
▁zaproszeni	-11.1019
▁umieszczone	-11.1036
▁zwolnień	-11.1036
▁Prowadzi	-11.1037
▁Granicznej	-11.1055
▁ostateczny	-11.1055
▁końcowe	-11.1055
▁dodatki	-11.1068
▁tegoroczn	-11.1069
▁zagwarantowan	-11.1074
świadczy	-11.1075
▁wygrywa	-11.1076
▁uprzedni	-11.1076
▁prawdziwy	-11.1093
▁energię	-11.1094
▁wykształcenie	-11.1094
▁uchwalił	-11.1094
▁Inspektor	-11.1113
▁sponsor	-11.1113
▁kończąc	-11.1113
▁dąży	-11.1114
▁Efekt	-11.1115
▁literacki	-11.1124
▁ciast	-11.1124
▁demokracji	-11.1132
▁Francuz	-11.1133
▁rywalizacji	-11.1134
▁inwestycyjn	-11.1134
▁następstw	-11.114
▁marketing	-11.1152
▁tradycyjne	-11.1152
▁zadowoleni	-11.1171
▁przeprowadzić	-11.1171
▁łódzki	-11.1173
▁grzbiet	-11.1191
▁zdobyć	-11.1191
▁Izbo	-11.1193
▁spokojnie	-11.1201
▁utworzone	-11.1202
▁córki	-11.121
▁pokrycie	-11.1211
▁współdziała	-11.1212
▁Mazur	-11.1213
▁ośrodek	-11.123
▁naprzeciw	-11.1249
▁prestiż	-11.1249
▁dziedzictwa	-11.125
▁konsekwentn	-11.1269
▁Poseł	-11.127
▁piłki	-11.127
▁dawno	-11.1279
▁koszyk	-11.1281
▁podejmowanych	-11.1289
▁lekarskie	-11.1295
▁oskarżon	-11.1308
▁Kongres	-11.1309
▁wycieczk	-11.1319
▁Niezależnie	-11.1328
▁drewniane	-11.1328
▁parlamencie	-11.1328
▁dowiedzieć	-11.1328
irtual	-11.1337
chrześcijański	-11.1348
▁intelektu	-11.1348
▁zaczęły	-11.1348
▁odnawialn	-11.1349
▁powstań	-11.1351
▁skrajn	-11.1352
▁hrabstw	-11.1368
▁zamieszkują	-11.1369
wołując	-11.137
▁Odkryt	-11.1371
▁Zbrojnych	-11.1388
▁czasopism	-11.1388
▁najstarszy	-11.1388
▁zdołał	-11.1388
▁archeolog	-11.1389
▁rektor	-11.1389
▁Około	-11.1389
▁Gliwic	-11.139
wrażliw	-11.1394
▁śmig	-11.1395
▁rzeczywiste	-11.1408
▁bezpłatne	-11.1417
▁zagrożony	-11.1428
▁literatury	-11.1428
▁gniazd	-11.1428
▁oczekują	-11.1428
▁dojrzał	-11.1429
▁Regul	-11.1429
▁Myśl	-11.143
▁cukru	-11.1448
▁Zmiana	-11.1448
▁garnizon	-11.1468
▁pierwotne	-11.1468
▁podjęła	-11.147
▁choroba	-11.1474
▁Ewangeli	-11.1488
▁Szanown	-11.1491
▁wagon	-11.1506
▁wejściu	-11.1508
▁załogi	-11.1511
▁ustalone	-11.1512
▁południu	-11.1528
bolszewi	-11.1528
▁posługi	-11.1528
▁Budynek	-11.1528
▁modlitw	-11.1528
▁Martin	-11.1531
▁przestał	-11.1532
▁odległość	-11.1548
respondenc	-11.1548
▁adapt	-11.1549
▁Badania	-11.1549
▁drobny	-11.1556
rejestr	-11.1565
▁Stowarzyszenie	-11.1569
▁zorganizowane	-11.1569
▁utwory	-11.1569
▁przeznaczono	-11.1569
▁pewna	-11.1569
▁odwołania	-11.1569
▁broń	-11.1569
▁weekend	-11.1589
▁kwartał	-11.1589
▁racjonalne	-11.1589
▁religii	-11.1609
▁końcowy	-11.1609
▁zastrzeżenia	-11.1609
▁zgodny	-11.1612
▁odcinków	-11.163
▁regularnie	-11.163
▁edukacyjne	-11.163
▁odpadami	-11.163
▁ciepl	-11.1638
▁Opiek	-11.1642
▁formularz	-11.165
▁święte	-11.165
▁obrocie	-11.1651
▁wszelk	-11.1663
▁wykorzystuje	-11.167
▁Szkół	-11.167
▁pozwolą	-11.167
▁przyjmowani	-11.1672
▁częstotliwości	-11.1691
▁Konwentu	-11.1691
kreślenie	-11.1697
▁Obywatel	-11.1704
▁wierzyciel	-11.1711
▁miliard	-11.1712
▁dowódcą	-11.1712
▁pedagogiczn	-11.1712
▁dominują	-11.1716
▁odczuwa	-11.1718
▁Międzynarodowy	-11.1732
▁egzekucyjn	-11.1732
▁kwalifikacje	-11.1732
▁ulubion	-11.1732
▁Samoobrona	-11.1753
▁algorytm	-11.1753
▁niebezpieczny	-11.1753
▁zorganizował	-11.1753
▁korytarz	-11.1753
▁ustalony	-11.1757
dyplom	-11.1761
▁farmaceuty	-11.1771
▁powierzon	-11.1772
▁szczególną	-11.1773
▁długotrwał	-11.1773
▁Dyrekcj	-11.1774
stąpienie	-11.1781
▁kobiec	-11.1787
▁nawierzchni	-11.1794
▁utraty	-11.1794
▁niezdoln	-11.1801
kończenia	-11.1813
▁seminarium	-11.1815
▁Chyba	-11.1815
▁opracowany	-11.1822
▁Szuka	-11.1823
▁wytrzymał	-11.1829
▁kwadrat	-11.1835
▁rozpocząć	-11.1835
▁zamieszkiwał	-11.1835
▁pożyczki	-11.1836
▁identyczn	-11.1839
▁zwolniony	-11.1841
efekt	-11.1851
▁ratyfikacji	-11.1856
▁maksymalne	-11.1856
▁pomieszczeń	-11.1856
▁Klient	-11.1857
▁zawodnicz	-11.1858
▁likwidację	-11.1877
▁piłkarską	-11.1877
▁Zgromadzenia	-11.1877
nieśli	-11.1884
▁zaniecha	-11.1886
▁elektryczny	-11.1898
▁Przeciw	-11.1899
▁Dodatkow	-11.19
▁Obiekt	-11.1908
▁faktyczny	-11.1909
▁Lokal	-11.191
▁przejęt	-11.1917
▁wzbogac	-11.1919
▁Regulamin	-11.192
▁Pozwol	-11.1922
▁Turystyki	-11.194
▁znajomy	-11.194
▁zabudowy	-11.194
▁sołectw	-11.1961
▁Rynku	-11.1961
▁przypadek	-11.1961
▁połowę	-11.1961
▁grzyw	-11.1962
▁przyjazn	-11.1964
▁Rolnicz	-11.1967
▁ciemno	-11.1975
▁kwartale	-11.1982
▁pojemności	-11.1982
▁wskazanie	-11.1982
▁powrotu	-11.1982
▁Materiał	-11.1982
▁Witold	-11.1982
▁strajk	-11.1983
▁James	-11.1983
▁Donald	-11.1984
▁kierowany	-11.1986
▁moduł	-11.1995
▁zagadnień	-11.2003
▁zaburzenia	-11.2003
▁ludźmi	-11.2003
▁przyjęto	-11.2004
▁ustalił	-11.2008
▁wykształcenia	-11.2025
▁odnotowan	-11.2025
▁wideo	-11.2025
▁środek	-11.2025
▁zawodową	-11.2025
eleganc	-11.203
▁obowiązywał	-11.2046
▁Chełm	-11.2046
▁wymogi	-11.2046
▁możliwa	-11.2067
▁istnienie	-11.2068
▁Właśnie	-11.2068
▁bieżących	-11.2088
▁zwycięzc	-11.2088
▁pożąda	-11.2089
miesięczny	-11.2089
▁pielęgniarek	-11.211
▁spółkę	-11.211
▁Wymaga	-11.211
▁zostają	-11.2126
▁oczekuje	-11.213
▁Mirosław	-11.2131
▁wykonywać	-11.2131
▁zaległości	-11.2131
▁Lubelski	-11.2134
▁Planowan	-11.2148
▁piosenka	-11.2153
▁Słownik	-11.2153
▁personal	-11.2153
Socjal	-11.2174
▁Węgier	-11.2174
▁dochodach	-11.2174
▁połączeń	-11.2174
▁Album	-11.2174
▁Black	-11.2174
▁specjalistyczny	-11.2175
▁zwykłe	-11.2175
kazywać	-11.2178
▁przebudowy	-11.2196
▁Cesar	-11.2203
▁Równocześnie	-11.2217
▁psychiatr	-11.2217
▁History	-11.2217
▁rolnictwie	-11.2217
▁Konieczn	-11.2217
▁słynn	-11.2222
▁najważniejszy	-11.2225
▁skuteczność	-11.2239
▁narkotyk	-11.2239
▁Parafia	-11.2239
▁zawodnicy	-11.2239
▁zdolność	-11.2239
▁architektoniczn	-11.2239
▁Produkt	-11.224
▁zamieszczon	-11.2242
▁umieszczeni	-11.2243
▁Przedstawiciel	-11.2261
▁możliwie	-11.2261
▁narciarski	-11.2261
▁Liceum	-11.2261
▁użycia	-11.2261
▁chęć	-11.2261
▁zlecenie	-11.2262
▁kawaler	-11.2265
▁utworzony	-11.2269
▁fundament	-11.2269
▁Irlandii	-11.2282
▁kilkudziesięciu	-11.2282
identyfikowa	-11.2282
▁zainstalowan	-11.2282
▁młodszy	-11.2282
▁żadna	-11.2282
▁zaczęli	-11.2287
▁oblicza	-11.2291
▁komercyjne	-11.2304
▁opieką	-11.2305
▁urodzeni	-11.2306
▁restrukturyzac	-11.2323
▁porozumieniu	-11.2326
ziemny	-11.2342
▁wiejskie	-11.2344
▁kontynent	-11.2348
▁pielgrzym	-11.2348
▁Uprzejm	-11.2348
▁rozszerzenie	-11.237
▁ustanawia	-11.237
▁Toruniu	-11.237
▁odznaczony	-11.237
▁fizyk	-11.238
▁tworzeniu	-11.2392
▁2007-2013	-11.2414
▁Ameryce	-11.2414
▁zastrzeżeń	-11.2414
▁niezależne	-11.2415
▁łatwe	-11.2415
▁Zarówn	-11.2433
▁geologiczn	-11.2436
▁Przepraszam	-11.2436
▁kwestią	-11.2436
▁przeszkadza	-11.2436
▁benzyn	-11.2436
▁angaż	-11.2436
▁szczebla	-11.2436
▁wpłyną	-11.2458
▁geodezyjn	-11.2458
▁okupacji	-11.2458
▁połączonych	-11.2458
▁turystyki	-11.2459
▁drobne	-11.2461
handlowy	-11.2465
▁Michael	-11.248
▁kierowcy	-11.248
▁zapomina	-11.248
siębiorczości	-11.2491
▁Brazylii	-11.2502
▁Ciekaw	-11.2503
▁rozwojem	-11.2503
▁przejściowy	-11.2503
wierc	-11.2519
▁maksymalnie	-11.2525
▁wzajemne	-11.2525
▁uciążliw	-11.2527
pomorskiego	-11.2533
▁gotowy	-11.2541
trzymywania	-11.2543
▁Aleksander	-11.2547
▁funkcjonować	-11.2547
▁Czerwonej	-11.2547
▁EUR	-11.2551
▁konieczny	-11.2559
▁przestępczości	-11.2569
▁zdarzeń	-11.2569
▁publicznie	-11.2571
▁poruszon	-11.2572
▁siedmiu	-11.2592
▁zakłóc	-11.2614
ruchomość	-11.2614
▁wdrożenia	-11.2614
▁statków	-11.2615
▁emitowan	-11.2615
wrócili	-11.2633
▁parlamentarne	-11.2636
▁nowelizacją	-11.2637
▁spółce	-11.2637
▁rynkach	-11.2637
▁Mieczysław	-11.2659
▁Nadzwyczajnej	-11.2659
▁Włodzimierz	-11.2659
▁konstrukcja	-11.2659
▁oryginalny	-11.2659
▁rzymskokatolick	-11.2659
▁córka	-11.2659
▁zasiłków	-11.2659
▁jedyną	-11.266
▁kapital	-11.2662
▁rozbudowy	-11.2682
▁zbóż	-11.2682
▁Dziennik	-11.2683
▁sowieck	-11.27
▁Zresztą	-11.2705
▁zorganizowany	-11.2705
▁oryginalne	-11.2727
▁komunalnych	-11.2727
▁nikogo	-11.2728
cjusz	-11.2744
▁uśmiech	-11.275
▁wiceprezes	-11.275
▁łańcuch	-11.275
▁szybciej	-11.275
▁wyższa	-11.2751
▁ogromną	-11.2773
▁umieszczono	-11.2773
▁ogłasza	-11.2773
▁liczebn	-11.2774
▁istotna	-11.2796
▁utworu	-11.2796
▁kolegów	-11.2796
▁ściąga	-11.2798
▁Jagielloński	-11.2819
▁Rzeczywiście	-11.2819
▁istotną	-11.2819
▁zaniedba	-11.2819
▁Ośrodek	-11.2819
▁Bóg	-11.2819
▁umocni	-11.2824
▁płuc	-11.2827
▁pierwotnie	-11.2842
▁redakcj	-11.2842
▁Angeles	-11.2865
▁siedlisk	-11.2865
▁czeski	-11.2865
▁mistrzowski	-11.2876
▁majątkowe	-11.2876
▁pisemne	-11.2885
▁Bogdan	-11.2888
wychowawcze	-11.2888
wrócono	-11.2911
▁margines	-11.2911
wrócenia	-11.2911
▁rekrut	-11.2911
▁kardynał	-11.2911
▁Opracowan	-11.2929
▁obrotow	-11.2931
▁Najczęściej	-11.2934
▁pozwolenia	-11.2934
▁pseudo	-11.2934
▁Egipt	-11.2934
▁aczkolwiek	-11.2934
▁miękki	-11.2935
▁długoterminow	-11.2935
▁prusk	-11.294
▁Ukrainie	-11.2958
▁uruchamia	-11.2958
▁społeczny	-11.2962
▁Pałac	-11.2964
▁dostarczy	-11.2972
przydatn	-11.2978
▁artylerii	-11.2981
▁gimnazja	-11.2981
▁mnóstwo	-11.2981
▁dziennie	-11.2982
▁Sosnow	-11.2985
przyjaźni	-11.3003
▁stóp	-11.3004
▁wpłynie	-11.3004
▁dworze	-11.3004
▁dworca	-11.3005
▁studio	-11.3021
▁profesjonalne	-11.3028
▁zawartości	-11.3028
▁dysponują	-11.3029
▁usunięcia	-11.3051
▁zdobyli	-11.3053
tknięt	-11.307
▁International	-11.3075
▁Politechniki	-11.3075
▁pojedynczy	-11.3075
▁autorytet	-11.3075
▁słusznie	-11.3075
▁Związk	-11.3076
międzynarodowego	-11.3076
▁elektryczne	-11.3077
▁wypowiedź	-11.3098
wrócił	-11.3103
▁uzasadniony	-11.3122
▁dokonywania	-11.3122
▁suwerenn	-11.3122
▁Święty	-11.3124
płynął	-11.3127
▁wewnętrzny	-11.3136
▁najnowsze	-11.3146
▁Ordynacj	-11.3146
▁samochodowe	-11.3147
▁polecam	-11.3147
▁rajd	-11.3159
trzymując	-11.3168
▁Franciszek	-11.3169
▁współczesnych	-11.3169
▁zagadnienie	-11.3169
▁wykonawcy	-11.317
▁kuchen	-11.317
▁Prawdopodobnie	-11.3193
▁córkę	-11.3193
▁poprawką	-11.3194
▁potwierdzenie	-11.3196
▁Charakter	-11.3217
▁Wyborczej	-11.3217
▁wdrożenie	-11.3217
▁kompozytor	-11.3241
▁rewolucji	-11.3241
▁znaleźli	-11.3241
▁wydarzenie	-11.3243
▁tożsamości	-11.3265
▁podejmować	-11.3265
▁Gwiazd	-11.3265
▁wszędzie	-11.3265
▁wilgotn	-11.3266
▁niespełn	-11.3272
▁farb	-11.3274
▁infrastruktura	-11.3289
▁diagnoz	-11.3289
▁przyjemność	-11.3289
▁zrozumieć	-11.3289
▁ciepło	-11.3289
▁Poniżej	-11.3289
▁Potrzeb	-11.3291
▁Gromad	-11.3304
▁Białymstoku	-11.3313
▁Białystok	-11.3313
▁Marszałek	-11.3313
▁intensywne	-11.3313
▁rozporządzeń	-11.3313
▁Siedl	-11.3314
▁Księstw	-11.3314
▁audyt	-11.3326
▁niebezpieczne	-11.3337
▁prośbę	-11.3337
▁magistra	-11.3337
▁kwater	-11.3337
▁taryf	-11.3355
▁zmodyfikowan	-11.3361
▁począwszy	-11.3361
▁koncesji	-11.3361
▁komisarz	-11.3361
▁gruntown	-11.3373
▁Konfederacj	-11.3386
▁Records	-11.3386
▁triumf	-11.3386
▁obsługę	-11.3386
▁drogowej	-11.3386
▁rynkowej	-11.3386
▁zapotrzebowanie	-11.3386
▁dodatków	-11.3386
▁tablet	-11.3388
▁precyzyjnie	-11.341
▁Wystarczy	-11.341
ołnierz	-11.3427
▁półfinał	-11.3434
▁School	-11.3434
▁zmuszony	-11.3434
▁sprzeczne	-11.3435
▁Elektro	-11.3443
▁Dawn	-11.3446
▁utracił	-11.3459
▁Dokument	-11.3459
▁chirurg	-11.3483
▁pierwotny	-11.3483
▁obietnic	-11.3484
▁Wysokość	-11.3508
▁bliżej	-11.3508
▁cerkiew	-11.3508
▁przekształcenia	-11.3508
▁zrealizować	-11.3508
▁refundacji	-11.3508
▁ojczyzn	-11.3508
▁ONZ	-11.3508
▁Wniosek	-11.3508
▁prasowy	-11.3519
dysponowan	-11.3521
▁móc	-11.3529
▁implement	-11.3533
▁Magdalen	-11.3533
▁odtwarza	-11.3533
▁pożytku	-11.3533
▁profilaktyczn	-11.3533
▁czystości	-11.3533
▁akademi	-11.3533
▁trybunał	-11.356
płacone	-11.3575
oszacowan	-11.358
▁Przedstawiając	-11.3582
▁księży	-11.3582
▁Drużyn	-11.3582
▁nożnej	-11.3582
▁charakteryzują	-11.3583
▁białk	-11.359
▁klauzul	-11.3607
▁otwarta	-11.3607
▁Nigdy	-11.3607
▁Usług	-11.3607
▁korzystny	-11.3612
▁pedagog	-11.3631
▁proporcjonaln	-11.3632
▁Zapewni	-11.3632
▁reprezentacja	-11.3632
▁brygad	-11.3632
▁Restrukturyzacj	-11.3657
▁profesjonalny	-11.3657
▁League	-11.3657
▁zdjęcie	-11.3657
▁Rezerw	-11.3657
▁szkód	-11.3657
▁zarobkow	-11.3673
▁rozległ	-11.3674
▁Reasumując	-11.3682
▁redaktor	-11.3682
▁National	-11.3707
▁współpracował	-11.3707
▁chęci	-11.3707
▁spoczywa	-11.3708
▁poręcz	-11.3716
rośl	-11.3721
▁izraelsk	-11.3757
▁dystrybucji	-11.3757
▁przypomni	-11.3757
▁uciec	-11.3758
rzucony	-11.376
▁Najświętsz	-11.3782
▁dokumencie	-11.3782
▁doktryn	-11.3783
▁schemat	-11.3783
▁Championship	-11.3808
▁darowizn	-11.3808
▁Bronisław	-11.3808
▁krawędzi	-11.3808
▁wyjątkowy	-11.3808
▁ratownicz	-11.3809
▁kontrowersyjn	-11.3833
▁oprogramowania	-11.3833
▁rachunek	-11.3833
▁zatytułowan	-11.3833
▁uchwala	-11.3833
▁Szwed	-11.3842
▁społeczna	-11.3858
▁zamknięte	-11.3858
▁redakcyjn	-11.3858
▁zrealizowane	-11.3858
▁Dróg	-11.3858
▁błon	-11.3873
▁prostokąt	-11.3884
▁kamiennego	-11.3884
▁liceum	-11.3884
▁doprecyzowa	-11.3909
porównywaln	-11.3909
ystyczną	-11.391
▁dyżur	-11.391
▁samodzielny	-11.3911
▁powstrzyma	-11.3935
▁doświadczon	-11.3935
▁rozpatrzenie	-11.3935
▁Rodzaj	-11.3935
▁Rzeszowie	-11.3961
▁konsultacje	-11.3961
▁jednoczesnym	-11.3961
▁ubiegani	-11.3967
rozwiązan	-11.3981
▁upoważnienia	-11.3987
▁Wreszcie	-11.3987
▁osiągnęła	-11.3987
▁emocji	-11.3987
płacenia	-11.3987
▁sztywn	-11.3999
▁automatycznie	-11.4012
▁zastosowaniu	-11.4012
▁uniwersal	-11.4038
▁obowiązkowe	-11.4038
▁segment	-11.4038
▁przerwę	-11.4038
▁Front	-11.4042
▁miesięcznie	-11.4064
▁najwyżej	-11.4064
▁Język	-11.4064
▁Katolicki	-11.4065
▁praktyczny	-11.4065
